/**
  ******************************************************************************
  * @file    phase_1_data_params.c
  * @author  AST Embedded Analytics Research Platform
  * @date    Mon Jan 23 12:47:47 2023
  * @brief   AI Tool Automatic Code Generator for Embedded NN computing
  ******************************************************************************
  * Copyright (c) 2023 STMicroelectronics.
  * All rights reserved.
  *
  * This software is licensed under terms that can be found in the LICENSE file
  * in the root directory of this software component.
  * If no LICENSE file comes with this software, it is provided AS-IS.
  ******************************************************************************
  */

#include "phase_1_data_params.h"


/**  Activations Section  ****************************************************/
ai_handle g_phase_1_activations_table[1 + 2] = {
  AI_HANDLE_PTR(AI_MAGIC_MARKER),
  AI_HANDLE_PTR(NULL),
  AI_HANDLE_PTR(AI_MAGIC_MARKER),
};




/**  Weights Section  ********************************************************/
AI_ALIGNED(32)
const ai_u64 s_phase_1_weights_array_u64[179397] = {
  0x3f1135cf40046cfaU, 0x3f4dad953f8f04d4U, 0x400c74a03fca1504U, 0x3fd112763ef86ea8U,
  0x3fc5d9923fd3c09fU, 0x3fb337b33f9ab98eU, 0x3f645c973fda225bU, 0x3f8fc3043fceca8fU,
  0x3f3871ea403548e3U, 0x3fd20e3e4004c2a9U, 0x4015811e3fbdfe62U, 0x3fc53ffe3fa108b2U,
  0x401106323f83aa9cU, 0x3f5b0f943fdc8801U, 0x3fa294bb3f995e82U, 0x3ed523624060d2ffU,
  0x4032fc9e3f7962e1U, 0x3f29d1163f58d126U, 0x3ec266c43fbd68ceU, 0x3fb1f35340bf0567U,
  0x402843993f55ab09U, 0x3f8bd41c3fb8684bU, 0x401690313ffba76cU, 0x3ee7de983fb51628U,
  0x3f93808240195695U, 0x3f5119413f0cd528U, 0x3f00d7e13f01a049U, 0x4012ea953fa0132aU,
  0x3ffb067d4000ee49U, 0x400e037c401a4f83U, 0x400e82ed404e015dU, 0x3faece7e3fcedf8cU,
  0xbd8e67ccbeb4e7a0U, 0xbe18aa3bbf2c751fU, 0xbeb3478fbecb4f17U, 0xbf6581f7be21b2f2U,
  0xbf64ed53be76b7c4U, 0xbf77c792bea64358U, 0xbf57daa6bf4912f0U, 0xbe962d67bebe2d69U,
  0xbe5bd6d2beb18c23U, 0xbea7d39bbea4baabU, 0xbeb48248bf36d118U, 0xbee7bd2bbeaa954dU,
  0xbe8ccdfcbf132cc2U, 0xbdf7596dbf12109bU, 0xbec0c4dcbf16deebU, 0xbdb9c826be9ed4c9U,
  0xbeb0881ebedb854dU, 0xbec97288bf2b79c8U, 0xbdfdd73fbedaed90U, 0xbeb9e168be985de3U,
  0xbeb18753be83c95eU, 0xbf3a8bc4beefbe6aU, 0xbea40259bf0ba4e7U, 0xbe2c86a8bea33fe8U,
  0xbea0d539be9c98b8U, 0xbe9c9029be17ae7fU, 0xbe30122ebe2c1edeU, 0xbe91c8c7bf4090afU,
  0xbe9cd6eabedafe6eU, 0xbea2ccdebe9f3403U, 0xbf404b32be74a375U, 0xbf64caefbf0cc65fU,
  0x3f0e96f53f2e9283U, 0x3f0dca913f4e2957U, 0x3f29799c3f2d7da7U, 0x3f62b3133f2e1673U,
  0x3f5ff6763f34bca9U, 0x3f66ab7c3f382508U, 0x3f6271ec3f542fe6U, 0x3f40b6983f3201d4U,
  0x3f27c59d3f2531d3U, 0x3f35d4c23f28f0b9U, 0x3f2ae9ae3f4dd388U, 0x3f35857b3f3a680dU,
  0x3f24922d3f486922U, 0x3f12a02b3f3e3e52U, 0x3f337e033f44fd1eU, 0x3f2aeea73f26beceU,
  0x3f281f303f2ad26cU, 0x3f2fb7043f54c0fdU, 0x3f3f78d83f396f0fU, 0x3f3682503f1bde93U,
  0x3f2ee6b83f4441c6U, 0x3f43cfec3f3ec55bU, 0x3f277d1e3f3b8a62U, 0x3f2f81003f29fc3dU,
  0x3f371d4f3f31b8d1U, 0x3f310e2d3f27ac75U, 0x3f35158a3f2f6c51U, 0x3f2841403f51ddf1U,
  0x3f28358a3f34ecf2U, 0x3f25b6443f29d611U, 0x3f4ad53a3f26463bU, 0x3f5f299a3f3c736aU,
  0xbeb372903d397d00U, 0xbeb7e9cebe3683caU, 0xbd9af518bdf84878U, 0xbee36a63be657b5cU,
  0xbf010d33bda7e74eU, 0xbef8b1f9bdfc9056U, 0xbe318dfabf38d419U, 0x3e1bad1f3e60522cU,
  0xbe8ebcb4bdfaabb4U, 0xbd8e627a3b580280U, 0xbe661d72be39b3acU, 0x3ce25f203e218684U,
  0x3e122b253c87dfc0U, 0xbe6e9fcfbe9631b4U, 0xbf069e26bde5f938U, 0xbe897e80be08a02cU,
  0xbd7403f03dface88U, 0xbf373bfbbebf6161U, 0xbebd3adc3cb210a0U, 0xbe15cf34be4b7ea4U,
  0x3e3a018ebbf99300U, 0x3c82ac203ccac700U, 0xbcb70950bd8671c0U, 0xbeefc366be73f718U,
  0xbe880265be3a7432U, 0xbe9d59ebbe818a92U, 0xbe2c2084beaedeccU, 0xbe289690be7c289eU,
  0x3cfdd250bdde9e9aU, 0x3e07ed92bd9efa4eU, 0xbe9e609e3d47c158U, 0xbefc554bbe51eb69U,
  0x3da21c8f3c240164U, 0x3d74f6f53c001d3dU, 0x3c65478dbd0238d0U, 0xbd1bf9563d98b82bU,
  0xbdc2bf5fbd92608cU, 0xbc2395f23d68aae4U, 0x3bfe6072bd8ddcd0U, 0x3c9eea6ebcc04692U,
  0x3c867d3fbda72649U, 0xbd80b7af3c84a50bU, 0xbd39e8e4bda31d45U, 0x3cf197ca3cfa82eaU,
  0xbc4a1758bcde059dU, 0xbcbff1f13cafd3c2U, 0x3db1cc243c8cbb8eU, 0x3dba6adcbd112bf0U,
  0xbce56197bca01814U, 0x3dc093d9bc5a724dU, 0x3c008745bd0d786cU, 0xba2d219ebd24a8b3U,
  0xbb1143f83b71344fU, 0x3b69eb113cac7386U, 0xbd8bd0973b2ba809U, 0x3db220fd3ca82969U,
  0x3ddcd39bbc02fe8eU, 0x3de19e963df1ef87U, 0x3d899e5f3db826a1U, 0x3cf351e6b9423604U,
  0xbcdf2d0d3b830014U, 0xbd0fea193c4d8e71U, 0x3ca9e7c9bcde077bU, 0x3c4a2f003da44175U,
  0x3d77637dbd615a4aU, 0x3c2d7e2c3bc832a6U, 0xbd211616bd888130U, 0xbb2a975fbd58291aU,
  0xbd5097d3bd274ed2U, 0x3b9cd92a3d3d2e89U, 0x3dca098ebdaa4abbU, 0xbc109cd2bd28f614U,
  0xbd54eb22bc9f9ab7U, 0x3b227dfe3d2ef1f7U, 0xbd50bf58bd4c0125U, 0x3de9375f3dabe95eU,
  0xbc23fe11bc6372e8U, 0xbd35bac53d5c7fe3U, 0x3cf24910bd27da47U, 0x3d349ec43c39f533U,
  0xbcffb4f2bdc874bbU, 0xbc9a73e43d557e14U, 0x3c76606dbc8ecee3U, 0x3d38b288bd354590U,
  0xbc663e913c8933b4U, 0xbe1ac3b8bc5e5a15U, 0xbd2228efbcc13f86U, 0x3c516281bd9ec907U,
  0x3cebaaca3d31ad3aU, 0xbc83068dbc1c3ff2U, 0x3ba159163d53dd5cU, 0x3d836f61bd644072U,
  0xbcf78fb3bcf464e9U, 0x3d5872a5bd8033e0U, 0xbd06fcebbd0a6cc9U, 0xbd0f089cbccedcacU,
  0x3d759a7b3c0596faU, 0x3bcf8b393ce69ef3U, 0x3c9d718fbd5b9a9aU, 0x3c08a89e3d996bc7U,
  0xbc9d6e323b2b2386U, 0xbdb71d123c01596eU, 0x3d6b138cbd4485bdU, 0x3d400dd2bc876c9fU,
  0xbc707f913d2d9c1aU, 0xbd2678fc3d572576U, 0x3d6345593c5b1ec2U, 0x3d9a4c32bacee330U,
  0xbc8eda6c3c983d3aU, 0xbcb5ebba3d09cdb6U, 0x3ded47293d890684U, 0x3d6ba7d8bcccbcd3U,
  0xbcc22b29bd07a7e5U, 0x3d3a1ea73d816451U, 0x3d634241bb73884cU, 0xbcb05e0a3cac20b4U,
  0x3d17f6303d2452bfU, 0xbd1ede42bc4cbd78U, 0x3bd32e2bbc9816a1U, 0x3d92cd133c5a4138U,
  0x3cbf702ebd896a12U, 0x3d9efbc23cea752dU, 0xbc33c8233d69b825U, 0xbccc478abd6d4ee0U,
  0x3d36bc61bd2093eaU, 0xbcbfadf4bc005561U, 0xbc0d7983bc44d7f5U, 0x3d078aefbd131b91U,
  0x3e05337abdaa4b5cU, 0x3da463e0bc34a03fU, 0xbd7f3418bc195130U, 0xba90795d3dc74fe3U,
  0xbd97d2743c8eef57U, 0x3b806a9cbcbc2218U, 0xbe17bceabc371d5dU, 0xbd28ddc93ccfdbd6U,
  0x3e44b137bd7d7c9fU, 0x3d189b393d2cb671U, 0x3d62eb1bbd8fbec1U, 0x3ccd47e13db3d09cU,
  0x3da8b86d3d7e857fU, 0xbc451674bceeb5f8U, 0x3cd8594f3dd4dcebU, 0x3dc0f20cbd9dfbeaU,
  0x3cafb90dbd7acc7bU, 0x3db6969a3bd1cfa7U, 0x3d88e258bd871cbeU, 0xbdac02eb3db7714aU,
  0xbd185403bcdb6901U, 0x3d414a45bdb38bc3U, 0x3d002cac3cdc6ae9U, 0x3e15a4b03baf7f54U,
  0x3e04bfa63cd9b64aU, 0x3d1233d73d969084U, 0x3deb70df3dbe77f0U, 0x3d1b36253c2371a0U,
  0x3da220013cccb7c8U, 0x3d7ee0d03dd4def8U, 0xbd5ad975bd56aaecU, 0x3c972ba83d8d220aU,
  0x3ce0af42bdd27873U, 0x3dbd4e933b7a1410U, 0x3d8d6840bdce823eU, 0xbdce17e83c69b2baU,
  0xbe0980b7bc80c29fU, 0xbd9959d63c24d858U, 0xbda6c3e5bd42dd38U, 0x3c6999413caa257cU,
  0x3d6e75b8be0b4652U, 0xbcf4438abb050b48U, 0x3b44eb69bdec30ceU, 0x3aa9368b3d08678fU,
  0x3d322ddebd665b05U, 0xbd88ea93bc1ca6c6U, 0xbd5bf793bd0fc315U, 0x3d2bb1163cb6d424U,
  0xbe043971be267425U, 0x3c8d0f7dbc82e726U, 0x3d17a4d0bd4b5a39U, 0xbdc06534be8afab2U,
  0x3c919d2cbd0619e6U, 0xbdd4b094bccb701dU, 0x3d8b13a43db61222U, 0x3deeda4f3c7c15e5U,
  0xbd5c6a36bce41427U, 0xbd9c23633d94eae3U, 0x3cb1280cbcd6605aU, 0xbcda5d52bd6832a6U,
  0xbe2498c7bd9b20cfU, 0x3d12f4c2be02fd73U, 0xbdf70002bd7ebdefU, 0xbcc50409bc0d8511U,
  0xbc102d523bec9a69U, 0x3db55e813ce89560U, 0x3dc07e633cbb3f14U, 0x3c9703c7bd5e6e27U,
  0xbdf7de34bd8cfebeU, 0x3cd00caebd35c7c3U, 0xbe01ebda3d411fbeU, 0xbd45dba53d2e0afdU,
  0x3d8d727a3d8e47caU, 0x3cb2f935bd413425U, 0x3d37b79dbe07b61eU, 0xbda76972bbfe5403U,
  0x3baf6deb3a9f48eeU, 0x3be749a3bd1094bdU, 0x3ce4276c3cc2b1ddU, 0xbc510d473d9af0deU,
  0x3ca184f4bd5cd341U, 0x3c8bb125bc040523U, 0x3d09c31fbdd5228dU, 0xbd55efa23da39a63U,
  0xbdb85d54bd825bcaU, 0xbdeab0723d94bc57U, 0xbd5246393ccd6544U, 0x3bb82e423d732601U,
  0xbce3d898b8fc9790U, 0xbc2d9aa5bd695cb8U, 0xbbac6402bd74acd9U, 0xbd14e42ebde5dc1cU,
  0x3cd056173ceb4f43U, 0xbc82377d3cd3f8f9U, 0x3d5025d4bd6e3497U, 0x3d034799bdb5cba9U,
  0x3d83c78e3dbd36e5U, 0x3d1981e63c5a1ca7U, 0xbd995c463d55219dU, 0x3df9cf893d2d8379U,
  0x3d7bef753d788b87U, 0x3d6e69fd3d5af575U, 0x3da67deabca5eb89U, 0x3d5486aa3d1f0d5aU,
  0x3e4bf2663db0df78U, 0x3c632da93b841d32U, 0x3d7fda6b3e00be1bU, 0xbd1b2f653d8ed1a2U,
  0x3d5a16f33da57dc2U, 0x3d8d79823d68d512U, 0x3b9a0f2c3b07c05fU, 0x3cba4d243d97f96eU,
  0xbcfa8337bd8aaa4cU, 0x3d039a413cebdfdeU, 0x3de620a93d37137bU, 0x3d8af0403e08190bU,
  0xbda237fc3e694859U, 0xbd865cb7be09483dU, 0x3ddffb89be309f54U, 0x3e244014bdc03562U,
  0x3d6d71df3d847313U, 0x3d5f4ccb3d332546U, 0x3cf02ab73d89b5e4U, 0x3d925a083dfca69aU,
  0xbccd282d3d95c9faU, 0x3be172db3d044a95U, 0x3da23faf3df1e7eeU, 0xbb81cfc9bcda8501U,
  0x3d9612c73c8d24f1U, 0x3c9ee7bfbb0d4064U, 0x3cae25edbe04151eU, 0xbbe63eabbc80df57U,
  0x3d4f8208bd502e92U, 0x3c62753bbd1d1414U, 0xbd00b5fdbd24654cU, 0xbd146e5c3a78851eU,
  0x3d51056bbe3859bfU, 0xbc95cf0fbd6ed162U, 0xbcb9dd373cb76499U, 0xbd0850ee3cc9806bU,
  0xbd21fa403c9e6741U, 0x3c0a4a5bbd6b5301U, 0xbd8dc02dbdfcacd7U, 0x3d84d6e0be07d340U,
  0x3c98551bbe25dc23U, 0x3d45d6f1bd3e6a59U, 0xbc59a8cebd4ea0eaU, 0x3cdbe6ddbe54c037U,
  0xbd4739623dbb04bcU, 0xbdba45913c114f89U, 0x3db064b3bbe1ec13U, 0x3d8c5b63bb2868d5U,
  0xbc74be3cbd19f8e1U, 0xbd8590163d6a4a89U, 0x3d64350bbc4c9c22U, 0x3d1201afbd82c1b4U,
  0xbdb4a9e9bb9f6484U, 0xbda7742dbc186004U, 0xbe436a5dbd9acf17U, 0xbc6c6fe03dc50022U,
  0xbcf239f0bdd4544dU, 0xbc8b5f47bd051abcU, 0x3c1a560fbd6cbdd1U, 0xbc63867c3d126c9eU,
  0xbae03dfe3d8719d2U, 0x3d369b40bdcf1647U, 0x3c8b4cd0bd752a77U, 0xbc8b2e22bc989985U,
  0xbc5c0f103da97203U, 0xbb5d732ebd9f35ffU, 0x3b2fae76bc672704U, 0xbde125933d3222f0U,
  0xbdb6469dbd70d54eU, 0x3d10193b3d8fce88U, 0x3dc80f5cbe1cd0d6U, 0xbd02e3ca3ae1382bU,
  0xbe14ccefbdb4678dU, 0xbd01a4cc3b93ae78U, 0xbbf40605bd799405U, 0x3cc230fabdaefb8dU,
  0xbcb64a993da02804U, 0xbd38833cbbb226efU, 0xbdbbbbd3bd5c39c9U, 0x3af7f502bc96c1e8U,
  0x3d1211cb3c4d397cU, 0x3cc802073d789972U, 0x3cf7ce4a3d14d884U, 0xbc8bb680bd060666U,
  0x3b01500e3d7c41a0U, 0xbc8b0b33bd0e97bbU, 0xbd7b78573d031af6U, 0xbd8c15fa3ce146d3U,
  0x3dbdf040bd7b8392U, 0x3dcaadc23d780e65U, 0x3c19d42c3d967c85U, 0xbc7024613e0836a7U,
  0x3d7a069c3d903146U, 0x3d481f923cb72af4U, 0xbda76c0a3dd9330cU, 0xbd448bac3d7a5da4U,
  0x3d6ddf0c3da6f298U, 0x3bea542ebd25892fU, 0x3d93ee08bc30f74bU, 0xbd98202e3d83d543U,
  0x3c1422febd95bc7bU, 0x3d8174353cd48cb7U, 0x3dc7e5bbbd4d8679U, 0x3e08ff1f3c1ff510U,
  0xbcadc2a83da0c5aaU, 0x3e01831d3d3d666aU, 0x3dc2e0ad3cc31f0fU, 0xbce02a953d229501U,
  0xbdb21b5c3d58798fU, 0xbd22e5103d35206fU, 0xbda46d1f3d93d199U, 0x3dd9a287bd1bae7cU,
  0x3d6ba45ebdae075cU, 0x3da97c2c3dece8b9U, 0x3d76a4693da372dbU, 0x3bba46cabdc750e3U,
  0x3cca532fbdbc9eddU, 0x3c78e0223cbc357cU, 0x3baf05aebc9ba83cU, 0xbc005545bd5cbeb5U,
  0x3da20252bd5a2dceU, 0x3d7fe777bd0b96dbU, 0xbd816396bd4a5451U, 0xbd6455953c06076bU,
  0xbba75420bda2e8a2U, 0xbdc0e89b3d70f036U, 0xbd9c66d0bd4b146aU, 0x3b8552103cdbfe65U,
  0xbd287d05be2d5863U, 0xbdc44047bd1e9e4cU, 0xbd0dec30bd8918deU, 0xbc905a94bd323338U,
  0xbd976eccbb8b71c7U, 0xbc97a777bd9f6b65U, 0xbcc32af63d3de7e1U, 0x3d7fddb4be200fdbU,
  0xbcb41ba7bcab0fa5U, 0x3df7afba3be2a2cdU, 0x3d0dfb7cbdf1184bU, 0xbd3499f4bddd6414U,
  0xbdb5ca75bc92747fU, 0xbd6fcd6e3c3509d2U, 0xbd1177c5bd33992aU, 0x3ba04d853d0f98efU,
  0x3cd6b755be25f075U, 0x3cb331533dbd1a71U, 0x3c9e715b3da0be78U, 0xbdba695dbc43a44bU,
  0x3c33012cbdc8f0bfU, 0xbd88cd5a3d00b13fU, 0xb985fa5abd93d6a0U, 0xbd8b19adbd66e905U,
  0x3bfe61a6bc17f029U, 0xbccb04d9bcd98b56U, 0xbdcda2eb3c79a21fU, 0xbd11339e3cf1f6f3U,
  0xbd4165ebbca36c38U, 0xbcbc38e9398cbaeaU, 0xbe1ce78bbd795a6dU, 0xbbfc5bc8bd1d7e30U,
  0xbcb68cd5bdf198e7U, 0xbc74dbcbbe326017U, 0xbdbfb10cbd805cbdU, 0xbcee3fa2bd452555U,
  0xbd50fefd3cf0da1dU, 0xbc8da263be06b7c9U, 0xbcaee2073d2b5669U, 0x3c8be6d8be0019f3U,
  0x3d592301bc1daaa6U, 0x3dd81288bdaa0085U, 0x3d93bf8bbdcbe53dU, 0xbe1b92ba3e248534U,
  0xbe3620ddbdae4ce7U, 0x3b775ebfbc626289U, 0xbdab5bb6bd6b2d6dU, 0x3bc06b683d27f573U,
  0xbc08f9cdbdbff285U, 0x3dbf63233dd41b5fU, 0x3dc0e8ffbb08cffeU, 0xbd65f1e9bde68d53U,
  0x3d84de6cbdcb6dfaU, 0xbd274d23bc55f67eU, 0xbcf36157bd5913d3U, 0xbd3c9f5bbe19886fU,
  0x3dbf695abd99021dU, 0x3ddccf4bbccfc2f4U, 0xbc3c59733d5f5783U, 0x3d830cfc3d874248U,
  0x3dc2ba393d216d1dU, 0x3c5e32ffbd76f6b6U, 0x3dcf5ff43d3b935cU, 0x3d3da132bc2d038eU,
  0x3d26d68c3d4a8b52U, 0x3dcd0a123cea2b9dU, 0x3d887d5d3db0d237U, 0x3d833105bd1fbf96U,
  0x3d47f4ccbdb3cb1cU, 0xbd309e4abc7d1d29U, 0x3dbbb46dbda15060U, 0x3de251d33c95bfedU,
  0x3cfe5691bce1b9ddU, 0xbcaee2703cc67e4eU, 0x3dafea743d801a01U, 0x3dd2d7063d93492dU,
  0x3d58d0d73cc8236fU, 0xbd975dddbbaf8fd0U, 0xbd9ff41fbdbf9556U, 0x3dd1b7733de48859U,
  0x3dca44e7bb8c2602U, 0x3d34ae483d7f1b36U, 0x3e1065ae3d9090f2U, 0xba8f04d83d81dd57U,
  0x3de883323ccb891cU, 0x3d6a14a7bbc6bc6dU, 0xbd36ec623d479a3bU, 0xbd17b68b3d3e66acU,
  0x3c8dd84ebcaf5d31U, 0xbb936bffbd0281b6U, 0xbb46d98bbdf17cafU, 0x3d40ef373cd464bfU,
  0x3d9eb2533c3c90d3U, 0xbd6d7dc7bd445e74U, 0x3d1ad5c73ce4b903U, 0xbda132943b445f0cU,
  0x3c990995bde1c590U, 0xbb8a19913c49450cU, 0xbc335f383d5fd4c3U, 0xbd9a27d8bdababadU,
  0xbcb9aea5bd51fd85U, 0x3c2eab2ebe0951bbU, 0x3d661fff3c09f45bU, 0x3cccfbbabdc0b464U,
  0x3d1084cabd8ea90bU, 0x3b9edef1bd2e984fU, 0x3c7a4d4bbd6832d1U, 0xbd62b0b53cd6b134U,
  0xbd0c34d43d5100c6U, 0xbb1751863c7f02ebU, 0x3d7f9028bd23bb33U, 0xbc9859b93ca58f4cU,
  0x3d696f813ca32d66U, 0x3ca68fd3bb1ea7a6U, 0xbd7bb35d3c8e6c13U, 0xbd47c2913d80e4cdU,
  0x3c6f64e8bd5e908fU, 0xbd5ea96c3d01c83aU, 0xbd46c976bdf02fbaU, 0xbce1903c3c6cd156U,
  0x3d8dd56cbc2d4faaU, 0x3d683376bc26ee3aU, 0x3dc84b2ebd19035cU, 0xbc9f98183d7075bfU,
  0x3cee203abae82010U, 0x3bb73aa1bd321c0bU, 0xbdeb5fecbd03414cU, 0x3ba093d5bc92596bU,
  0xbc34bc60ba12ecd7U, 0x3c960b573b27fcb6U, 0x3d353ab4bd8fa9c8U, 0x3d74476dbd4d4d3dU,
  0x3d2b5b773de90a25U, 0xbd29a92d3c4bc227U, 0xbd014495bb5d8e97U, 0x3d06475bbd50a343U,
  0xbb08075e3c8f85c2U, 0x3d80f3593c750409U, 0xbb49dddabdb8e8eeU, 0x3ccac664bcbd8631U,
  0xbda63ff2bc8de163U, 0xbdb923b93caacf04U, 0xbdb0c42dbd1335cbU, 0x3d21aa7d3d7772b9U,
  0x3cc917e03d370e5fU, 0x3c9ec882bc2cbc98U, 0x3cdb8b87bc7300c0U, 0xbc8978e4bdb265b1U,
  0x3c4c56d0bdabeb07U, 0xbd2b0393bd8fd39fU, 0xbc63d6ea3c9131dcU, 0xbd0294d0bddd9892U,
  0xbc14334a3cc9c9b1U, 0x3e17c146bd36eb12U, 0xbe04ae75bd5222d5U, 0x3db0eaef3ca3d7f7U,
  0xbdbcb849bde69d20U, 0x3d1d978ebd904c38U, 0xbd7bf3babc8e0b96U, 0xbcad9314bd0586e9U,
  0xbd26c8f33c524df1U, 0xbda2f4e63cdf753aU, 0xbe32a84dbb692aeeU, 0x3d97a94ebb605942U,
  0xbd2ff463be275d69U, 0xbccc0a55bdab81c2U, 0xbda757b03d766b74U, 0x3d905274be1119f0U,
  0xbdf32473bdd1be26U, 0x3b791ec0bde7e3cdU, 0x3b00d838bcaa8776U, 0x3c1324e3bd8f57a3U,
  0x3bf952ca3b557acdU, 0x3b00df54bd0e8dacU, 0xbdd518b5bcee17deU, 0x3cef11f83cab5f26U,
  0xbdd662063d631188U, 0x3d7948b93d2256fbU, 0x3dfde0463d66eb4cU, 0xbccd00ce3ce5305aU,
  0x3b121c22bd947baeU, 0xbd432e43bde67981U, 0xbd2bc725bd3ab97bU, 0x3d528e7dbd5a5e39U,
  0xbd05831d3ccb0261U, 0x3d305b0ebdaeccc6U, 0x3ca8ee7abc99d24aU, 0xbd55b847bc0fb871U,
  0xbc91edab3dc50e6aU, 0x3c911480bdebece0U, 0x3db74d303db00d77U, 0xbdb3bc71bce017b7U,
  0x3d950a053d48b01cU, 0xbd1681023d362760U, 0xbd18173e3b03cd44U, 0x3c301466bdb7fef4U,
  0xbd2854b9bdd5eae7U, 0x3a914ca63c721933U, 0x3da5eee23d76ca64U, 0xbda697c0bde53cebU,
  0x3c872c3abcc6adb5U, 0x3cc91de8bcaf3e38U, 0xbd43145f3d2101c3U, 0x3db879c33db4e895U,
  0x3e15318ebd4b42e6U, 0x3d55bb1b3cae1c4dU, 0xbc7f8d85bd17070aU, 0x3bf97e8dbd01505eU,
  0x3d0ec65d3bf86b15U, 0x3ad5e030bd9f9c2dU, 0x3ab482c1bd74bbd0U, 0x3d8a24e63d5cf1caU,
  0xbda16d61bd57a18dU, 0xbb89c11fbbd95d48U, 0xbdffaf89bdb61a2dU, 0xbb7abd763d243fffU,
  0xbb4897f63e2ac8b7U, 0xbd35493a3d23873dU, 0xbe09ffcf3d320e53U, 0x3d934da13d967e6dU,
  0x3d8f94f23ce0017aU, 0x3dd91018bd129283U, 0x3de8f6ff3cc92785U, 0x3c23613dbd067a5bU,
  0x3b34f0f53d89643dU, 0x3d8b90323ccc30a4U, 0xbe0240413b831832U, 0xbaa7d0123d16d03eU,
  0xbc0dd0b4bdd6a8e3U, 0x3d47e7c93cbea2fcU, 0x3dbc54df3e05923fU, 0x3d7f4e80bd6ebfbeU,
  0x3d2da40a3d0dc7faU, 0x3c6b741cbbbac28eU, 0x3d233febbce7afd6U, 0x3d8fb0193d5731f9U,
  0xbc531f353dcf22f8U, 0x3ce8df23bccd5344U, 0x3bbfdac2bdc42c53U, 0x3c4c116e3c0973baU,
  0x3c6089e43daf8b73U, 0xbc15088bbd0082e2U, 0x3c9f14acbccb9f64U, 0x3dbed3ebbcfaaf6aU,
  0xbd9cd304bd20aaf0U, 0xbdb3b96ebccc1d4aU, 0xbc9717083cd01963U, 0x3df0b9a13dca765bU,
  0xbc76aadc3e06f4f3U, 0xbcd86cff3d9f9304U, 0xbcb2dcc83c55299cU, 0x3c8f3d4a3dbd4befU,
  0x3d98f6f83d02beb1U, 0x3cb114723e156e61U, 0x3c8de92abcac0f01U, 0x3cf47870bd158917U,
  0xbb7383ba3d7546a1U, 0x3cc510b43b6e79d0U, 0xbc80b6933d4ff9adU, 0x3d8431f93ce7235bU,
  0x3c30e2e63c5c6c01U, 0xbd922aec3d872e18U, 0xbd083c9f3c7cd219U, 0xbd96933abc9a0d43U,
  0xbc471fb4bdbee12bU, 0x3bf7085a3d9fb5a6U, 0x3bfc058abdb63fe1U, 0x3d41a0ee3ca39977U,
  0xbcef14f5bc7e2b0aU, 0xbd0f2bfb3d846252U, 0x3b6e3aa1bc9899a3U, 0x3cdbd89bbe152443U,
  0x3d1c343ebc965823U, 0xbd4a13a7bd15b31fU, 0x3c8dec3c3d863d82U, 0x3cd17274bd2a614eU,
  0x3d445be63d595307U, 0x3dadf027bd31b454U, 0xbd28123d3d0be908U, 0x3cfd33003c87dd21U,
  0xbc2b58553bf1103fU, 0x3b845dddbcd3bdaaU, 0x3afe14863dcf60eaU, 0x3d7ec1073db5aca5U,
  0x3c769add3d4d94deU, 0x3b58f7373cd81161U, 0xbdc5fefb3d87e949U, 0xbd7fbc0bbccfa7e0U,
  0x3e093d3abd2c470eU, 0x3e010b6abcd08764U, 0xbd1f8fe03c7d0ad0U, 0xbd6055113d1dc707U,
  0x3dfa349b3cb996d4U, 0x3d906ca03c976c44U, 0x3dd932403d1ec2c6U, 0xbd1838d63d8754cdU,
  0x3d89e8773d26e321U, 0x3d6f88493d83c30fU, 0x3b6e35ed3da3a498U, 0x3d8ead3e3db49930U,
  0xbdd8bb41bd5d6d28U, 0x3d85ee5abd9c6b94U, 0x3c1f3aaf3ab0b1beU, 0x3d75fb093d581d5fU,
  0x3d443210bc683bc9U, 0x3c88c7a63d85f1d0U, 0x3bffa3ab3d472e12U, 0x3db6befa3ce193e0U,
  0x3d2f71fd3a9353aeU, 0x3a58e8c93d96d104U, 0x3c20f6ed3c81f240U, 0x3dd8faa5bd405089U,
  0x3d802e793c6ada97U, 0x3cfa159cbdfce246U, 0xbdb5745e3d551dcdU, 0xbc7cc9cf3da76a04U,
  0xbc0618423c546fc7U, 0xbc7faa653d2193a6U, 0xbc97ecd9bcfa6234U, 0xbc627563bdc534e7U,
  0x3e0490ea3c8f79ddU, 0xbd03efc3bd583002U, 0xbcb2610dbdcdea9aU, 0xbde738a7bc8199f7U,
  0xbca72ea7bd98d9dfU, 0x3d7cff8abd8503abU, 0x3d2eb009bce67573U, 0x3de397cabd4a6a37U,
  0xbe01b35ebd3d8d9eU, 0x3c9a7b7dbd3cd631U, 0x3d4f5a9c3d2ea01cU, 0xbc12603cbddaad27U,
  0xbd58f109bc61e1eeU, 0xbcf31b85bd868cc8U, 0xbd93e1cfbcfa5d34U, 0x3d597b0fbd9b6fb6U,
  0x3bea0b1fbcf822d7U, 0xbb89070a3de8fa4aU, 0x3daee2133e170d17U, 0xbd89aa8e3d4fe57cU,
  0xbd7bda5bbcb0260aU, 0x3ccfd37a3c0676c2U, 0x3d5d131e3d1299a2U, 0x3dbe478bbd316af6U,
  0x3d1f058ebd0ec3beU, 0x3db2a421bcd94619U, 0xbdba9c5d3c885851U, 0x3cde45c53d2a4282U,
  0xbb5525b4bce89e7fU, 0x3ca7e040bca08f34U, 0xbd5f1c4cbddefa87U, 0x3c48aea4bd8bde63U,
  0x3cd43b93bd5c000aU, 0x3d43bba23cea553cU, 0xbd7c9d92bde98cb4U, 0x3c1238acbbb63fc7U,
  0xba35b9453c89f89fU, 0xbdbeddf23d45c8a8U, 0x3d2357d2bcc11d5dU, 0x3ca2623cbd90c344U,
  0x3d88d2efbca64c78U, 0x3dc7228b3d987443U, 0x3d802634bd17e3ccU, 0xbba7e4343c403d8aU,
  0x3c87f65ebd4b7c1cU, 0xbd9537fa3d82388eU, 0xbe0fbf3abd4c59f2U, 0xbc8b6e77bdc16a2fU,
  0xbcf45509bd02350aU, 0x3d0a01ad3cdfb0c2U, 0x3d8cfa27bb5dc963U, 0xbd4cf8fe3c8e86deU,
  0xbd8c1401bc2a1c9dU, 0x3bffc0863d8627ddU, 0xbccd58ee3d3fd31fU, 0x3df3cfd03c37e658U,
  0x3dd6e0073cfbfca7U, 0x3de16d023cc48dd6U, 0xbd22643f3d192601U, 0x3d3a6eae3e14d024U,
  0x3da5769b3dcc8972U, 0xbd2cb20a3d9fb7fbU, 0x3c32bbf23d62d967U, 0x3d23d7cdbd6238b4U,
  0x3e11d094bc8ed4ccU, 0x3cc79675bc84a097U, 0x3b8c5e673daeaf49U, 0x3d5130253d8d11ebU,
  0x3df335b53d7288c3U, 0x3e0ffd773c405012U, 0x3d5b358e3afa861aU, 0x3e1323223c1db038U,
  0x3c24f69d3c002801U, 0x3d8a99783d0f8682U, 0x3de80f4c3db4fbfdU, 0x3dc2a1ac3dc09304U,
  0xbcce9b763c97bf0fU, 0xbc634529bc408142U, 0x3d8f6729bba0e57bU, 0x3d4fb2853da69a18U,
  0x3d6c2608bd5fddb0U, 0x3d58a17b3d4b8d90U, 0x3e0471283e02a43aU, 0xbd56bf413d661780U,
  0x3d6c6b6e3d0e2b98U, 0x3c9993a2bcff70d2U, 0xbdb54eab3c33817dU, 0xba2e1542bdcb0ebdU,
  0x3df35ed53c973eebU, 0x3dcb9cbebdbacbf7U, 0xbe22499fbcd4a509U, 0x3c717ec23dfb82f7U,
  0x3d0cf076bc36c82dU, 0x3d992a0c3ba74a80U, 0xbdbe30993c8c6af5U, 0x3bc90114be65b1e6U,
  0x3df3f746bceaf09eU, 0xbcd8d512bc6fda27U, 0xbcb7e8f0bcc638e9U, 0xbc07e4f6bd320a37U,
  0xbd6a7461bcf4496dU, 0x3da0f9cfbd7390e4U, 0xbb5448d8bd9f6fc3U, 0x3dd4348e3d0229afU,
  0xbde1ed31bd6e1339U, 0x3c8f7fb3bd170461U, 0x3e1deb9abdbd2d88U, 0xbe1aa319bd780bf2U,
  0xbd020eaf3d9b53ebU, 0xbe0a9ecbbe2e95ceU, 0x3d239260bd908f94U, 0x3d4f70773b31a97aU,
  0xbc0a763fbd74a2b3U, 0xbd3a22dd3da1bcb2U, 0x3dc231d33db13df1U, 0xbdb5039bbca3d61cU,
  0xbd3fb21dbcc3a0c5U, 0xbd6b9fa13dcce99dU, 0xbcbd4f4a3a1e4906U, 0x3d49b34bbd85e7e4U,
  0x3cf8f862bdb2e7c3U, 0x3dd6f3febe01f5a5U, 0x3d18ff243d383ebcU, 0xbdb7dbf13d93dfd2U,
  0xbcd68736bc4c082cU, 0x3c8e30a4bdd8e085U, 0xbd68fbc83d25c73fU, 0x3d3968213b0a83a7U,
  0xbc749e1dbc503991U, 0x3d2ccdefbda3196eU, 0x3d33850bbc8fcaa0U, 0x3b7fe3ce3df4a1f7U,
  0xbd4e11cf3d13d32aU, 0x3d82f2eb3d80d0a8U, 0xbb212b033d06b850U, 0x3c49d893bce038d6U,
  0x3d535f7cbcea2536U, 0x3e313964bd2211b1U, 0x3d0905983dbcb15cU, 0xbc1156babd19e1e9U,
  0x3caa2c71bd648821U, 0x3d4cfc603d95b2b7U, 0xbdd212293c70c1dfU, 0x3d5114903e065a83U,
  0xbd80a1e63c31e5deU, 0x3e4200843c7542b1U, 0x3e0fd6cd3cfb7bd4U, 0x3d06daf23d8d01baU,
  0xbd21d1aa3ba9ab94U, 0xbdce42ff3d14506cU, 0xbd757308bd19994dU, 0xbdf324e2bd280a91U,
  0x3ddc082fbda93ec0U, 0x3da318dfbcac5da3U, 0x3cef7cc13cfb6228U, 0xbc5959643dd63070U,
  0xbdad51613da062bdU, 0xbcf3514d3d97d68cU, 0xbcb449ac3d11cf8fU, 0x3c7af7c3bd74a778U,
  0x3d68be74bda25d8bU, 0x3c6cdb143cf9c9d1U, 0xbde2fc643b9f5e62U, 0xbd48d62c3cea6c1aU,
  0x3d78ad3fbcfd6bb2U, 0x3deeb2b63cc82283U, 0x3d4f6ecb3d497d18U, 0x3d328dc53bec9706U,
  0xbc218a52bccc9cc5U, 0x3c9d14d13d368718U, 0x3dcd9b5f3d6f0a0fU, 0x3d4fba763c72d4a3U,
  0x3c171a303cb58249U, 0xbcda682abc9e3878U, 0x3c34812fbd13c358U, 0x3d9f61d93d808724U,
  0x3beea686bcb687a3U, 0x3d7589b03d01d530U, 0x3d0fc44d3d7b99fbU, 0xbca7b4793dd8cbfeU,
  0xbc3acce83cc65d88U, 0xbd09104bbdcb8609U, 0xbddf436bbcd8039bU, 0xbd9501f4bd7ade96U,
  0x3e3028103cdae1b7U, 0x3dc851a1bd9bad95U, 0x3cde43553d6a4c7dU, 0x3de580b33d710dbdU,
  0x3d311f39bd2b79e4U, 0x3d81e6513d94e42bU, 0xbd5184a23ca365a5U, 0xbd687164bd0f01adU,
  0x3d9bd3f3bd80851dU, 0xbac8e8a2bda6c50aU, 0x3d88aba13d93b702U, 0xbd28db433d1bb7aaU,
  0xbd6d12d93c99dba2U, 0x3e0533d9bd7d4cd4U, 0xbc8d62cb3d2a4925U, 0x3e0d07cdbd7ba289U,
  0x3da47f78bd44b37bU, 0x3bba5e583d29329eU, 0x3e15eb953d727552U, 0xbda3a68c3dafabacU,
  0xbc1dfc7c3ddded70U, 0xbd6fca7bbd7879f5U, 0x3cf6be73bd2254faU, 0x3e1936263de585abU,
  0x3d6e8886bd2a8a99U, 0x3d3d6e753d1691eeU, 0x3d38a2b33e167788U, 0x3c0c38113d02aed4U,
  0x3d0abc173cb9dd96U, 0xbaea0f14bd5f45b3U, 0x3c17bd54bdd03c13U, 0x3c8900abbca2956cU,
  0x3dc9fc31bd5976f5U, 0x3d622acf3c2aaaceU, 0xbd58b0f6bdb87554U, 0x3d8517803de07da6U,
  0xbe069e7a3b0c2301U, 0x3d9dd3b63d12f5dcU, 0xbac9c1fbbd64b81cU, 0xbd459d4ebc23bc87U,
  0x3d469e213d7530f7U, 0xba41c2853c888153U, 0xbdaf778abc925dabU, 0xbd05d0b9bb8b8c19U,
  0xbdf7f3f9bb36a787U, 0x3d34e234bc311d73U, 0xbc3165e1bc7ba364U, 0x3d6f3769bc743a60U,
  0x3d2385d9bb5f595eU, 0x3dd77927bdddd032U, 0x3d8c8c1dbc9a3051U, 0x3b4c6ff1be261adaU,
  0xbce7706fbdbb8e06U, 0xbbb64c883e084c23U, 0xbde07c2a3c5d3639U, 0x3dbe28a83d000d53U,
  0x3cca9fbebdd49c79U, 0x3d1472ba3dace856U, 0xbcb30a913dbf180bU, 0xbd03cf3c3cc01fd5U,
  0x3a4a65a8bd9fb1c0U, 0x3cebf9c9bdf1de11U, 0xbde3bef8bcacc825U, 0x3da5c778bd3e9ccdU,
  0x3cc6826fbd01c1e8U, 0xbccb91783d3e4068U, 0xbcf7945ebd101486U, 0xbd043ad3bcbbfa55U,
  0xbcc1c709bdb11de2U, 0xbc701dfabba37e20U, 0x3d05f5aebd0bd4aaU, 0xbdfa5b07bd2fcf40U,
  0x3d5d973f3bf395afU, 0x3d8916cebdae0bf0U, 0xbdb093f9bd3a6c15U, 0xbd09b5c0bcfb004cU,
  0xbd912181bd069994U, 0xbc18aa01bd3ffe69U, 0xbd462ca13c5ceacbU, 0x3d7b60b2bccaecb5U,
  0x3d207791bd46ee57U, 0xbd0958c4bd9dc435U, 0xbcdd60a1bc8add02U, 0x3d346479bdd01951U,
  0xbde8e00a3c97191dU, 0xbd1985c83d4af1dfU, 0xbc461b3a3d0bd029U, 0xbccc0f193c505a19U,
  0xbcc951d7bd1cc520U, 0x3d80264e3daafdc1U, 0xbce9c6b63cb90558U, 0x3d7da8f0bd1edc24U,
  0xbce668b7bc99fa04U, 0xbcacc53bbd81a2caU, 0xbcc73fe8bd0967ecU, 0xbd57c4afbdb14eb6U,
  0xbc75dc413c2dbb87U, 0x3d2a55713da26552U, 0x3cdd3bb7bdb66b39U, 0xbcee974d3d3bb085U,
  0x3cd9a7a93c9eac31U, 0x3d037c4ebb67a868U, 0x3da3b1213d1e80cdU, 0xbdd107293d83aaa5U,
  0x3c3029e43db07386U, 0x3d2a31343d5ef902U, 0xbd4b9d4bbc836d4fU, 0x3e1047ebbd3f7a00U,
  0xbdeff7753a693266U, 0x3cc8bd0e3dc42bc5U, 0xbc99398c3dfe97d3U, 0x3d4338d33cb96c16U,
  0x3c9d004bbd5999e0U, 0x3d6a124ebd8d0eccU, 0x3d0167173d3773b6U, 0x3dd6d162be286555U,
  0xbc8eaaabbd04d7abU, 0x3c94d1193d0bea93U, 0xbda3aba8bd48e5e0U, 0x3c7ddff1bb74f103U,
  0xbd16437fbbf07adcU, 0x3cbc7f193d739581U, 0x3d6e2ef0bcf17164U, 0x3da4b3963be7a185U,
  0xbddf6adbbd3f8d8cU, 0xbcdedcb0bd7be58bU, 0x3d00ff6cbc2dacbeU, 0xbda39e283e06d6f8U,
  0x3d91e388bd96f3d9U, 0x3dd2c364bd299283U, 0xbd96c3973cc1cedbU, 0xbd3ea0423deaafbfU,
  0xbd0500483d901ef2U, 0xbd1a351e3da45126U, 0x3c856395bdc2e72bU, 0x3d12ef07ba94464bU,
  0x3e0d99b43cac13e2U, 0xbc3d936bbda0c521U, 0x3d45a4ef3d05019eU, 0xbddf29a73d9256a7U,
  0x3da63df23d9b6887U, 0x3d2cce693beabedbU, 0x3d597e04bd0ce196U, 0x3d97700bbcb8621eU,
  0xbc0bdc27bcdb69b3U, 0x3de52b873d9148ffU, 0x3d2fd74bbdd78a18U, 0xbc1fed013d146ad9U,
  0x3c99972a3bdf08deU, 0xbb1d26e0bdd82a9bU, 0xbde91212bcb1a25dU, 0x3cdf51423d997cb1U,
  0x3d89a0b83d03dd7bU, 0xbc87a8ef3c211b9bU, 0x3d8dd1293e03fbfeU, 0x3d38c7a0bcca9294U,
  0x3d8df2d3bce8a115U, 0x3c2538763e13c7f7U, 0xbd86112c3c47e733U, 0xbc89c430bd0de877U,
  0x3cea8cb5bdc1a1b8U, 0x3da07d3a3da0f9a3U, 0x3d61cb6cbd597e62U, 0xbbb08e503cf9a843U,
  0x3c9b2992bd9b8a9cU, 0xbd6e7456bd970c8fU, 0xbdd460f2bd551303U, 0xbc9401a1bd8009a5U,
  0xbd6bfd19bdbb5280U, 0x3a7f491fbdf2f8ebU, 0xbd48ad45be1038f1U, 0xbdb13fb0bc88d51cU,
  0xbd9792c9bb99500aU, 0xbd9f52f03a897a5bU, 0xbd5caab3bcc21991U, 0x3daceb32bc25e775U,
  0xbd0fbb873c856a8bU, 0x3d8aa97fbc5590eaU, 0x3d41ab6bbdc00ecfU, 0xbcc56f96bb931789U,
  0xbd9de046bcee6b7eU, 0xbd15967abd586863U, 0xbd1c71593cb7977cU, 0x3d64248d3d069394U,
  0x3c62a3223c2d26d5U, 0xbcb7cd3cbc14bc23U, 0x3d8da4b43ab44022U, 0x3d2f728abb8f735aU,
  0x3d660c9c3bc2eee4U, 0xbacc8a2f3bd6fcfaU, 0xbc7d0b3f3baed913U, 0x3ccc27c6bcab24ebU,
  0x3de15e62bca22bf4U, 0x3dbabf1d3d8538bbU, 0xbd8c7b03bd1a44efU, 0x3d404bcb3ce33748U,
  0xbcf0b3e2bd02de8fU, 0xbd316744bd2643bdU, 0x3d94ac6ebd2ad724U, 0xbcbabc60bc203397U,
  0x3d002495bd1c13e1U, 0xbd35401ebd8cf3aaU, 0x3da7ee6abd45b64dU, 0xbc365b80bd46ad3eU,
  0xbda576a53d23f2edU, 0x3d54fab6bd28c9e2U, 0xbce317193d2173a5U, 0x3d7917b1bd9b1aacU,
  0xbdea9c96bc4d4713U, 0xba890c983d5a20aaU, 0x3ccec839bd9ddd70U, 0x3d0abaf03d35f215U,
  0xbd9eec8a3c9dd4e9U, 0xbc2143d93d96126cU, 0xbbc0b717bcf35c25U, 0x3cd5f4bd3b6001a3U,
  0xbb9083613d5c3cd0U, 0x3da30fd0bc9ad3deU, 0x3b4feb4f3c405532U, 0xbbc6f6bfbae6c001U,
  0xbda3b33bbb6bd7feU, 0x3d2e560abcdc69f8U, 0xbcd41e973af5ab20U, 0x3bd55f4a3d861779U,
  0x3dc93a34bdcd9546U, 0x3cf622fb3b937af2U, 0xbcf1353bbc6e1fd9U, 0xbd6b940e3da2f7b9U,
  0xbd436cbf3db7b257U, 0xbd4d7196bdf0bd58U, 0xbd404285bcb94e15U, 0x3d620aef3d39be98U,
  0x3e06b515bc9bcb19U, 0x3dbcd757be1016aeU, 0x3e2cba7ebdae9f32U, 0xbd4e32f03dc234e3U,
  0x3c6abb613cfd0924U, 0x3ddb63c13b807a39U, 0x3d72b459bdba6ee3U, 0x3c8f51633d4ca3d7U,
  0x3bb6c7ac3c06ccddU, 0x3bd83ad13d9f7542U, 0x3ddfba423cde6d7aU, 0x3d64137f3e5b5707U,
  0x3d24565d3da1a585U, 0xbd6524cebdd14b18U, 0xba8cf0f8bdbde614U, 0x3dae317f3e0fbf54U,
  0x3dd3c0083d5a0a67U, 0xbd7e211c3d1313a9U, 0x3d432b8a3dbdbb02U, 0x3c08992b3dee984bU,
  0x3da1bfa23d13d11eU, 0xbc91167e3dae5c89U, 0xbc4dafa03d473093U, 0x3c4332f13d92a905U,
  0x3de35edebe09330cU, 0x3b92422bbd8f545fU, 0x3ce82b5ebdf2e959U, 0xbd1d6562bd05cfa4U,
  0xbe057bf3bdb53d4bU, 0xbd9e0d69bd90c303U, 0xbcb78eaebd86f09aU, 0xbd9cebcabcfe4833U,
  0x3a916528bcbafff3U, 0xbce692973cc53d2dU, 0x3b2d2482bdd9adbcU, 0xbdf51ea9bbfbec1cU,
  0xbd97e98cbc5d2730U, 0x3dce4933bdf02224U, 0xbd97e2dfbd3cdfbeU, 0x3da52bc4bd354f77U,
  0xbc8eb334bdeb8425U, 0xbb7485debc2ef112U, 0x3c8b7dc9b94f0dd3U, 0xbcf609a7be0ef2e7U,
  0xbcd226b2bad55c56U, 0xbd84d652bdb78c2bU, 0xbc16f0e33da79eedU, 0x3d96229f3d40be36U,
  0xbd4c890d3c86c9fbU, 0x3a78d1763cc8663aU, 0xbcc176d13b951a75U, 0xbcec92c7bd321098U,
  0x3b50f45cbd5e17baU, 0x3ca01e36bd5c0f43U, 0xbd15511abd828525U, 0x3d1ec703bd569028U,
  0x3ce996eabe06c28cU, 0xbd3e8ec03e02f879U, 0x3d7294f6bdc6b436U, 0xbd1ac7ff3bdcc1dcU,
  0xbd7a335b3bd4fb5eU, 0x3d428f76bda39f40U, 0x3cf0ffc43d1c5cb4U, 0xbd0f8ec83c1ca00cU,
  0xbd1d787fbc3bf99cU, 0x3d423071bb9f9aa8U, 0x3d80014cbba361faU, 0xbd927ca8bc850e5eU,
  0xbd361c8c3db148efU, 0x3d898662bcd9f5ebU, 0x3cff9c74bd414580U, 0x3d45fbcebd4f1abfU,
  0x3dada327bd692b3eU, 0xbccf7a723c808484U, 0x3d62eb3fbd9dff0eU, 0x3c2978a13d80970eU,
  0xbd41393fbcd65e74U, 0xbd44235e3ac74e5dU, 0xbdc6e3463cf8273eU, 0x3d626e373bd4efdbU,
  0x3c3fe1cfbc1f8a82U, 0xbdd9dacabd097a1bU, 0xbd6eb956bcc55107U, 0x3c9a9defbdda87b1U,
  0xbc8a6682bdea20a4U, 0x3d9408453c9ec169U, 0xbda244a03cee43d8U, 0x3d64e7e23d07291fU,
  0x3db9df9cbd23459aU, 0x3dfc7357bb855c3eU, 0xbda3f7c8bc19170aU, 0xbd5640b83d2e53b5U,
  0xbd84fd8f3d49efa8U, 0x3c5781e93d83ee55U, 0xbd0951f1be02ebbdU, 0x3d8e059d3b8fac5cU,
  0xbcde420cbd462816U, 0x3ca75e3cbcbf8347U, 0x3b96295dbe033bc3U, 0x3c9f267e3cc277dbU,
  0xbdb09ff43cffb1feU, 0x3b6983753c0d0217U, 0x3d2dae86bd8926bfU, 0x3d6e738dbd0148a1U,
  0xbc919a67bdc53fd1U, 0xbda452843d7876f6U, 0xbb9b5caabb9493d8U, 0xbd9db0213cef6576U,
  0x3c8b101ebd5f3e56U, 0xbdfdc9933d245cf9U, 0x3ca3a0e6bd0318d1U, 0xbbc8683f3ce5e93eU,
  0xbc54ca583d9d05d0U, 0xbda51ba73cb7d552U, 0xbd80f1603c27ab33U, 0x3c6c02a8bca0e377U,
  0x3de8baa5bccb6f2eU, 0xbd31aaa1bdc47e06U, 0xbdbf5721bdb0d19aU, 0xbcbb9bf5bd58bc7fU,
  0x3addee6dbdf5e8f7U, 0xbd15bbb4bd768f25U, 0x3d1017a8bdbc643dU, 0xbdf110bf3ab9b9a5U,
  0xbddb199dbcdbf3cdU, 0xbd0c2b89bd238636U, 0xbe0568993d763438U, 0xbdce8c14bd410c88U,
  0xbc404c3cbce1c955U, 0x3cae70943d8cc388U, 0x3d0dd4f2bdd5a0e4U, 0x3ccbe727bcdd0472U,
  0xbdee09a2bdc9981eU, 0x3b90124e3da004faU, 0xbd78d3343cac4a26U, 0xbd609622bd9b54d9U,
  0x3cb5ac633c585b28U, 0x3dd394073d35fbe6U, 0x3c86885d3d68a116U, 0xbd25df73bc08439fU,
  0x3ba8b454be0ae767U, 0x3da9b096bce4d45eU, 0xbc1b48783d4e1a72U, 0xbcb976b7bcac20a1U,
  0xbbf68af4bd3a1b7fU, 0x3d083a10bd342130U, 0xbb112ca93cb3c96dU, 0xbd388d42bd89e124U,
  0xbe2ddc92bc7215e5U, 0xbe1edeac3b85b1e8U, 0xbdd9d95ebc8455e8U, 0xbd80b9b2bdafbf0bU,
  0x3d40eaf2bce28c7fU, 0xbceda0763d70d880U, 0x3d5313d13d3d5790U, 0xbd6a5d253ccaa135U,
  0x3d8e117ebc67af88U, 0x3bac2a573d2357e8U, 0x3d9eae34bd0e09b2U, 0xbcb198183dea2ed0U,
  0x3d2013fc3c81d32cU, 0x3c1d3c943ce22a15U, 0xbdaab743bde3d7bcU, 0x3d9340013d1a6c3bU,
  0xbcaab9c4be0d8c02U, 0xbd2b1dc73d9427f2U, 0x3c392476bdcac3c2U, 0x3d8f6299bc790366U,
  0xbd36a3903d34beccU, 0x3df202ea3c728baeU, 0xbc1a34943d30b089U, 0x3df6936bbd879450U,
  0xbbc91320bcb54b89U, 0x3d94c0a03dfe7fa3U, 0x3ce499993d2c8ebbU, 0x3d9836bbbd111da9U,
  0xbcdbf7713dada9b8U, 0xbc8424873d4f2474U, 0x3dc3d24a3d5b7983U, 0x3c8f74a83d881947U,
  0x3cebb5dabd1f2b22U, 0x3d5defbbbd16e482U, 0xbda2c9dc3d29a13cU, 0xbce676413d8d11adU,
  0x3d037aa0bdd498b8U, 0x3dab99303d1f77b4U, 0x3b2e4d733d4da06eU, 0xbe31a60d3d9a3fe4U,
  0xbcb75132bb4fd01aU, 0x3e2dab863cd295a2U, 0xbd743161bc77c8b4U, 0x3ddae03e3d605aa1U,
  0x3d5fefddbd2b1e9bU, 0xbb58eea7be448b6dU, 0x3d0c3c9dbd348cb3U, 0xbe1bd0293d180287U,
  0xbc65b22dbd37ddd5U, 0x3c1577613da95b39U, 0x3d0325f9be193e0aU, 0x3b4fe796bd9e8a1fU,
  0x3d9ec9fabe00c3a3U, 0x3d59937b3c8d34d2U, 0xbcc6a6923cb9c0beU, 0xbc9a43243a27b6d0U,
  0xbdb4118b3d80d087U, 0xbdee73fa3d66eb04U, 0x3c641c453c4ed8d4U, 0x3dd7267a3b25071aU,
  0x3d86f4a23db5bc94U, 0x3d929fc13ddcdc07U, 0x3de033b03b681ca3U, 0xbd52a0453c077352U,
  0x3d67f43fbdba000cU, 0xbd5b2c82bd96a039U, 0xbd26f185bdf80529U, 0xbe17da8db9b8397eU,
  0x3d1492e2bdb3c8e2U, 0x3da8076b3dc0899bU, 0x3cc6cec53aa0d48dU, 0xbdb60edd3dd8621aU,
  0xbd688e66bcde7c1fU, 0xbcdbd7893d7dabe5U, 0xbc3760cc3d839a31U, 0x3d57b4e2bc236ec7U,
  0xbc56eef7bd96e71dU, 0xbb799a30bb9ce81dU, 0x3d705338bcc8c2daU, 0xbdd232393d423d5eU,
  0x3b2608593cc94ab2U, 0x3bfda5693cec32eaU, 0x3da71dd0bd9d01feU, 0x3e074b463a588febU,
  0x3c9399583d79378eU, 0x3dccf5dfbd36a07fU, 0xb9ed16ebbd0fb4afU, 0xbcc174c83c284af7U,
  0xbd4c9ba73da86de8U, 0xbd6e1771bd975bfbU, 0xb73270403c9beea0U, 0x3d87e7e63dc2355fU,
  0xbd26a49cbc6d52d7U, 0x3dfc448e3dc53148U, 0x3db64d1fbc316ad4U, 0x3c342eaabdbb62dbU,
  0x3d6df70abd98da5fU, 0xbd2e9bf93caf2efdU, 0xbc45a828bdc27727U, 0xbe0f185ebddbd07cU,
  0xbc7b49ddbd4749c4U, 0x3ce4c3713d48f68eU, 0xbbca2057bd4c02b5U, 0x3c1c84233d68942dU,
  0x3ca6baffb8bba6d7U, 0xbbbc38f9bccd3e52U, 0x3d9a3f7e3d0e0ca6U, 0xbc04dd66bdccae95U,
  0xbd3b6c64bd9da352U, 0xbd6dd61bbcf7306dU, 0xbd860e6e3d001c54U, 0x3d185c123d2ff923U,
  0x3ce99dd1bdbacbf0U, 0xbc98fc9b3dcabfc1U, 0xbbee77fcbd59f7c3U, 0x3c5363bf3df6c0c0U,
  0xbcd470fa3cbcd7dfU, 0x3d94258fbd61b862U, 0x3d5d636f3ced443fU, 0x3e0820c0bd4d4b67U,
  0xbbaa026c3d799d57U, 0x3c4026b03cfb7be8U, 0xbce568a9bd80bc1eU, 0xbd1556303d2765c8U,
  0xbd4a4f5b3d63fd53U, 0xbc2248563d4f149aU, 0x3cb7c9273c83e14fU, 0xbd6588273c299939U,
  0xbd9a24853c975727U, 0xbd825bc33c245295U, 0x3e0dbefa3d4d2acdU, 0xbced2c69bccc2e8dU,
  0x3c543424bcc161beU, 0x3dd5ac073dd53614U, 0xbcde871b3d9ae9f2U, 0xbcb18d163d8b2653U,
  0x3d38c1cdbbfac649U, 0x3d5997ffbd081f80U, 0x3dc14a70b91afeeaU, 0x38bb3893bcffcdbbU,
  0x3d1e9c903d468c77U, 0x3dd636143d2b4f4dU, 0xb8cf85943de48dd4U, 0xbd90cd353dec6140U,
  0xbcf83f89bc6a1e17U, 0x3d525edf3df51379U, 0x3cebbd77bd2c043cU, 0x3d2ba6f43d8bb461U,
  0x3a859504bd896c7eU, 0x3e1ebace3d8f776fU, 0x3d83a1533bf9dd1aU, 0x3e0899e63c0c922fU,
  0xbbb619e33c199ebfU, 0xbd1a85693d27bdd5U, 0xbd4ffa8f3c8058b4U, 0x3e0c11303cae6e5dU,
  0xbdccac953cb3e7c5U, 0xbac91da93ce45ec9U, 0x3cf498ee3de938bbU, 0x3d07003f3dd0ac0fU,
  0x3c8023ebbcce6168U, 0x3c88d59bbd46660eU, 0x3c173286bdb22c60U, 0x3bc0e2373e33c625U,
  0xbcd93d433db41d22U, 0x3d527552bd87f81eU, 0x3d395524bd9a06bdU, 0x3d5776453ce90ca3U,
  0x3d1f45b2ba2c8379U, 0x3cd611733dd93270U, 0x3bea2354bd19c6d2U, 0x3cc99febbd0debc3U,
  0x3cf65e70ba8c3639U, 0xbcb557e5bcecc2fdU, 0x3b987c2c3d41ac7cU, 0xbd3ec39bbdee7a68U,
  0xbe25ee393be1f135U, 0x3db3a89dbdb3195fU, 0x3c54d5eabbb832cfU, 0x3cc153683cdd4371U,
  0xbd4d878f3c16fb4dU, 0x3c5b5efc3cbda23cU, 0x3d833becbdf71423U, 0x3bc606f03d9349caU,
  0xbdd860293da0e6e1U, 0xbe136d7bbe002476U, 0x3d80be543d04c42dU, 0x3c74478f3a187292U,
  0x3d3488d6bd8a6aecU, 0xbb9e368b3b4a35a3U, 0x3d3c774e3d11bb06U, 0xbe1a5278bd1a72e5U,
  0xbd72c4e83d20ca22U, 0xbcda0725bd7cdf59U, 0x3d9e9c663bb2029aU, 0x3cef6a7ebc4bbecdU,
  0x3de5e59fbd4e56f6U, 0x3c9cfcb0bc583603U, 0x3d1022bcbda9f5faU, 0x3d797e533d8b6053U,
  0x3d4247ddbe0df741U, 0x3d426c653d4023dfU, 0xbbfac61b3e00f451U, 0xbbfdcc2cbd28c338U,
  0xbd071b243c4e7b5eU, 0xbdde528c3cf62af4U, 0xbd814bdc3ce25b2dU, 0x3cb5145bbd8911acU,
  0xbddaca5abdb21151U, 0x3d074337bcebec1aU, 0x3b15c38ebd357544U, 0x3d7d73afbcbf0bf0U,
  0xbd9534aa3d48221fU, 0x3b979c96bdecdd24U, 0x3d1e0b49bda07d61U, 0xba6c13473d59ec3dU,
  0xbc8847bb3c11f3ddU, 0x3c826cfebdc4bb13U, 0x3d2344e03c8cb641U, 0x3d77dd1d3b1449f8U,
  0xbd9f9c43be48d0e9U, 0xb8eff38e3d554665U, 0x3c6ab964bbf2d02cU, 0xbde9abdebcb4a837U,
  0xbdc206323d1196c9U, 0xbdb3f033bdd63e4aU, 0x3d216ef43c81f083U, 0xbca34cff3d227872U,
  0x3d8db8eebda44185U, 0xbd1e184ebd3dc41bU, 0x3c4e0b78bce12328U, 0xbc3e54103c8559fdU,
  0xbd8e9b183ca7c6f7U, 0xbca74f80bc25e5daU, 0xbda663753d4714a3U, 0x3c90edf9bd823c8cU,
  0xbd7de38cbd3e06b3U, 0x3d038f99bdbcd50fU, 0xbcccfeccbd327215U, 0xbc3be7d03d850668U,
  0x3b52919cbda20ec1U, 0x3c27851b3cdec175U, 0xbda95a51be00e915U, 0x3d513458bdd8dbe5U,
  0x3bf1818ebd07c663U, 0x3debf2373c476464U, 0xba24fd483bf50467U, 0xbc49afb8bce113d8U,
  0x3daba005bc9f7fc1U, 0x3d43e5f9bd2a5560U, 0x3cae86ee3d555cbeU, 0x3db1a5f43cc9af15U,
  0x3ce5c6673a0d43d1U, 0x3c8754153d6830afU, 0x3d9b7c57bd192072U, 0xbc7943e9bd3f992fU,
  0x3c3564c4bc5e4111U, 0xbd33463c3c49add8U, 0xbd7f090fbd09cfc8U, 0xbd65ccd03c75ce25U,
  0xba21e024bbe29712U, 0x3ce6ef74bd3cb9b6U, 0xbcec27a2bd18d3deU, 0xbd5e32d1bc5787b8U,
  0xbb9af948bcdc2ab4U, 0xbd097652bbcf5c01U, 0xbdd9e048bd1098cbU, 0x3dbb8d23bcb199bdU,
  0xbd9a695a3c8d96bcU, 0x3d088915bcb1ed7cU, 0x3de5f959bdfc082aU, 0xbc0396ad3cf9c446U,
  0xbe090d45bdb34ba7U, 0xbcc5d4e8bd19ee97U, 0xbd4a92d3bd4f724bU, 0x3b09e06cbd407741U,
  0xbcd3210ebdb53e1dU, 0xbd16c079bdb03ec3U, 0x3d467e61bbce6a69U, 0x3d489a3cbbeeb372U,
  0xbd13d5d7bd0fe6aeU, 0x3c9921653d06c39cU, 0x3cac0ba6bd68dddaU, 0x3c144b5cbdaa05c6U,
  0x3c444e443da6db59U, 0xbd402f4abddfb8f9U, 0xbd5e1e3dbca63db7U, 0xbc66d4c4bce6853aU,
  0x3b9e93fcbe0105b0U, 0xbe0c657ebc13d8c3U, 0xbd2b2dbebd9e8cfaU, 0xbe4e231dbd139472U,
  0x3dca54fa3d10621dU, 0x3ddce763bcb39900U, 0x3d0e3adfbd46066aU, 0xbdd425cdbc638cf5U,
  0xbd0b6cf43dccec47U, 0x3b8fc4273cdf2d20U, 0x3ca9d8fc3d2bec3eU, 0x3c3d09e83c79cd55U,
  0x3d95ffaf3d4c311dU, 0x3d211a4dba456457U, 0xbda67364be38a79bU, 0x3da713b23d970a15U,
  0xbd20de7dbdca75dcU, 0xbcad4d573dffe374U, 0xbcbc61043b009df5U, 0x3dc923bebd2332e2U,
  0x3d8e12aa3df464acU, 0x3dedf5393d621bd7U, 0x3cc9eead3e505f8aU, 0x3dc25fc43dbe539aU,
  0x3dbb6cb53cfdcd35U, 0x3d8713903e19b43aU, 0x3d317e673d898b87U, 0x3d51fc123d382c53U,
  0xbc7360083e2126a4U, 0x3de9e6d13d98e965U, 0x3d3dbd5e3c5c60f8U, 0x3dc6f966bbe0e5f9U,
  0x3d351993bcd4ca52U, 0xbc3a939abd04aed1U, 0xbe391c33bbf42fdaU, 0xbd9a3b103cf061f7U,
  0x3d9892e43d3db1c3U, 0x3d42b34e3d33b302U, 0x3da41c3ebd16e494U, 0xbd6e8b3d3d7c72b5U,
  0xbd0da692bd2e90adU, 0xbc9d76c53bf6f32eU, 0xbe2c4a2e3d9421cdU, 0x3e001e1cbce25715U,
  0x3ce987d8bd4542c9U, 0xbca0ff023c8aa06cU, 0xbdc75384bdad539fU, 0xbd7e74e33da54635U,
  0xbda976ea3d398be2U, 0xbd6c60aa3cb89efdU, 0x3af571093c08b69eU, 0x3c0eb526bcf9102eU,
  0x3ca3aea6bddd7ed4U, 0x3dd5262a3cb77956U, 0x3c39d8503d182c00U, 0xbd2d1203bdcfc1f9U,
  0xbd9ab360bd2a6551U, 0xbd85ac4c3d3c481bU, 0x3cfc2e6e3cb9315aU, 0x3d32c6903dc5d583U,
  0xbc6fee383c3a2e39U, 0x3c8c95f53d1d5fbeU, 0x3d70b9e63c770106U, 0xbdc8bf693c0b394dU,
  0x3b9ad7e1bc8e5becU, 0xbdb3b45abd482e93U, 0xbd5f0befbdb8425eU, 0xbc75b280bcbfe65bU,
  0x3d3bac963d0bda61U, 0x3d84c9463d1408d4U, 0xbbaee8ea3d18e8a5U, 0x3aaea7763d9fa92bU,
  0xbe099d3f3beb2ff5U, 0x3e1dc2083d36de5dU, 0xbd138fc7bce04ba5U, 0x3e27812fbd244273U,
  0x3de52c28bd10776bU, 0xbd2cb8d4bd2f998aU, 0xbd202733bdd3da82U, 0xbdd36363bc1ddc64U,
  0xbd8a3a973a915eddU, 0x3d976b783d0dac82U, 0x3d3ef90cbe115f3cU, 0x3ddd17783d26b2d1U,
  0x3d16050abae8d2f6U, 0x3e061485bdb4f7eeU, 0x3b9bc298bd8fc022U, 0xbc714212bd51fc54U,
  0xbe02b1dd3cbb7321U, 0xbd5f4e323cc287cfU, 0x3cf0242ebdca7fd7U, 0x3db53f733d8aa633U,
  0x3bb9e1e53ce557ceU, 0x3d7155e13dbd1633U, 0x3d6aac533d5c821fU, 0xbd10f90dbdd691e4U,
  0x3de5a99fbdaec59dU, 0xbccef72f3d3357bfU, 0xbd8a5624bdbe2b8dU, 0xbddab888be2663b5U,
  0x3b34bf17bdb948a3U, 0x3d3b37b6bce30637U, 0x3d6f3f803d3dbafeU, 0xbdc105883dc143abU,
  0xbd500393bcdb757eU, 0x3d4135f93c049541U, 0xbcc530f33de4ee82U, 0xbb63666fbb92aa66U,
  0x3d90d7163c94f829U, 0x3d04213fbd240f79U, 0xbd54b714bd92190bU, 0xbd125f6a3d98e0a9U,
  0xbd00a226badcdbf3U, 0x3c9e80223e29eaaaU, 0x3d5f3f7abd76c629U, 0x3d878b97bbc92386U,
  0x3c53ee313d423984U, 0x3d37e58abd650107U, 0x3d26dc293df37f82U, 0xb9da9f6abcb26de6U,
  0x3cde85da3d0d61dbU, 0x3d9caec53cf17a1cU, 0xbc57c975bcc9a725U, 0x3d7f05fd3c938c4fU,
  0xbc96f4c2bd0b9610U, 0x3de4ebe23da33d3dU, 0x3cc41ed83d88e9ddU, 0x3bdf7eceba9bf106U,
  0x3c1bb134bcdffd3aU, 0xbd9c1e60bdee1792U, 0x3d52a1143ce40321U, 0xbd75cc0fbcb3bb36U,
  0xbc96c496bde1c4d1U, 0x3df1f10c3ce98f36U, 0x3d0724b23da47ee4U, 0xbd4a4fd93d1a420bU,
  0x3d8722a23ce59325U, 0xbc9233d53d419b84U, 0xba1eee303db1f2b1U, 0x3d9adbac3d76d4adU,
  0x3b1f897dbca7fe14U, 0x3d975b4fbd42b622U, 0x3cc154d63c7a2666U, 0xbd90d402bc72474aU,
  0x3d797e5abd0dce86U, 0x3d68edb53c4eef8dU, 0x3ce1d620bdbd45b7U, 0x3dda98c6bc6eaa06U,
  0x3d51e0ddbd507d5eU, 0x3dee28cbbd93b5a2U, 0x3da999ae3d0c4ab3U, 0x3db4cdf23d538f41U,
  0x3d40721e3ce76615U, 0xbc3eac8ebc40e3d8U, 0xbcf03c1e3d61d5c7U, 0x3d993b6e3d93179bU,
  0xbdf94b753d2029b4U, 0xbb4985b13cf9eed0U, 0x3e1ef3bb3d0b4597U, 0x3c9224e53dcb71a0U,
  0xbd604c5b3d2c482cU, 0x3ca15fa8bd4b79c6U, 0x3d366d41be02dfd9U, 0x3d193eb53c2beaf3U,
  0x3b7f5f763c1d9453U, 0x3cc1f5e6bdc37e55U, 0x3ca8bea33d7b9a37U, 0x3cbe71a7bc63d3cbU,
  0x3da94f7e3ce7a337U, 0x3dce1770bcd1fd3bU, 0x3d9f8ae53d379b31U, 0x3cb8ad053cd8d12bU,
  0x3cac83663cdeab10U, 0x3d1ea5a4bd80fc38U, 0xbd1742d33da29ac1U, 0x3d4de4503c84a90cU,
  0x3d3164d4bd2b356eU, 0x3d31ebf83d1b090dU, 0x3dfa6ded3cf2cbceU, 0x3c4ab5dd3d363616U,
  0x3dd8635fbd6765feU, 0xbcdcff1fbcdda6bcU, 0x3d7e60c83dbb4662U, 0x3b821c523de466ceU,
  0xbccecdd43d2e6029U, 0x3a4911123d4db341U, 0xbaab72373d309caaU, 0x3d4b596f3d32a90fU,
  0x3cb6da06bc628d3aU, 0x3d67a2cb3bf09992U, 0x3d22469d3d3b2a37U, 0xbdd603623db62bf6U,
  0x3dac7f673d25035dU, 0x3dcacfabbd6c08e0U, 0x3d6d2471bc07043dU, 0xbd866b823d6cdb6cU,
  0x3d64521f3d383cfaU, 0x3dac2545bd8a7c2cU, 0x3d3f0e66bd042845U, 0x3d9df6d23d29068dU,
  0x3d6ecc01bd7b1dcfU, 0x3c0535333dcbf085U, 0x3d30acb33d9271e2U, 0x3cb66a1abd6e8753U,
  0x3da67eb03ccad767U, 0xbd91e145bc1e211dU, 0xba3ddc64bd00ad36U, 0xbd15355abd972c56U,
  0xbd518e23bd105d4aU, 0x3cbc3943bb915176U, 0xbccb97a5bcc1a891U, 0xbc7722d03cafe1f9U,
  0x3d3be9a53d9e68c9U, 0x3b888f3dbc5fce78U, 0x3db3e75ebbe5fbe8U, 0x3ac0ab273d3cd784U,
  0x3b85abc63d8fbc90U, 0x3b6dd4b9bd82ea8bU, 0x3de11f4fbdc9b1ecU, 0x3d53feaa3d2aa1bfU,
  0xbdf5fd92be30823eU, 0x3d84a05e3c0c2634U, 0xbc967b10baab5228U, 0xbd80b37bbd5306f0U,
  0xbca231cc3d7ffb28U, 0x3cfd0da83d2dd1dfU, 0x3d79d5f8bd424657U, 0xbc63db90bda68010U,
  0xbd83c90a3d08a9f8U, 0x3ce6164fb918e710U, 0x3d535d233d5060fdU, 0xbdcfb63abb9c5c05U,
  0xbdb5931f3cba316cU, 0x3d89ea623dcd6b44U, 0x3dc6611dbdbc7724U, 0xbd346016bc7a2807U,
  0xbd837a35ba8059a4U, 0x3d2986e3bb12e323U, 0xbd6084613d7ed4b3U, 0x3d4a69d43caacac4U,
  0x3dcd84a63cdd6b48U, 0xbd8c86a03cd3b290U, 0xbc5e4fe1bca9ed9fU, 0xbc7ed514bd05329eU,
  0x3da3f72f3cc17520U, 0xbd208b2e3c60308bU, 0xbd635a8dbc651ba5U, 0xbd7a6e8abda4d2ebU,
  0x3d38d790bc99ff52U, 0x3d1099803cdea3c4U, 0x3dc04429bc65debcU, 0x3c3c91c3bce1d0e6U,
  0x3d2fe0a43cb79ef2U, 0x3d9e0cfd3d94c427U, 0x3c1e8134bc2262a5U, 0xbcd7697d3dfaa7b3U,
  0x3c7227303bd81bafU, 0x3d90b554bd5eaff6U, 0xbcc685123d352d81U, 0x3c676807bd019093U,
  0x3d5907b6bd9094b7U, 0x3d4fbbbfbd715991U, 0x3dc4254dbbe20c82U, 0xbd1515833d15db19U,
  0xbe0e32fe3d8e0962U, 0xbdac38123cc39528U, 0xbdbde2373d90c82cU, 0x3b2e7f14bcfa40efU,
  0x3d44dec53c70c57fU, 0x3a837da4bca96481U, 0x3cce8c97bd9c415bU, 0xbdd5add03d34374aU,
  0x3d7cae533c94acacU, 0x3c4b4795bd45bd84U, 0xbc8508babdad81c6U, 0x3c883260bd8efaeaU,
  0x3c2e38593cac42ccU, 0x3d5758d7bcb2a874U, 0x3cdec5a43d60684aU, 0xbb82cc703d316be2U,
  0xbd4daa73bc9d9770U, 0x3d1b8d68bc8c187bU, 0xbb0bcc693cb14df4U, 0x3d78897e3d52447cU,
  0x3ca3e93cbde9a57cU, 0x3bac25b9bc5759d3U, 0x3cc090f03ca736f2U, 0xbd2e71943d22f0d8U,
  0x3ddf950bbcf6a110U, 0xbaf36c01bd357903U, 0xbd8bed21bd4d1069U, 0x3c417ac53cfc6d5bU,
  0xbd8ae8acbda72d65U, 0xbca902c2bd9c40ddU, 0xbd29fd35bd956531U, 0xbe2a9fb2bd8e805cU,
  0xbcc266163d5f3465U, 0xbd3b77cebd06724fU, 0xbd384663bd83b3f4U, 0x3da31373bd3c679dU,
  0xbdbe18913ae35527U, 0x3bb89c093d8eadbfU, 0x3bd7d8f0bcf5f7e4U, 0xbd6690603e11d240U,
  0xbd1e16a6bcf5d26dU, 0xbd8eb3153d6055efU, 0xbcdbc045be4b961aU, 0x3d077f44bd1eeae6U,
  0xbdd9c1b4bd41ebefU, 0x3bd5d841be1e15fcU, 0x3c9e2eb4bc8a43beU, 0x3d9f31a2bdfe4640U,
  0x3d155d5a3d5de973U, 0x3ce809873ca0949bU, 0xbd3aa8f2be030c3bU, 0xbd8af7933d852c87U,
  0xbd0545e93d7201c7U, 0x3cca02e6bd2d3c1fU, 0x3cade1d6ba2794adU, 0xbcc2b169bd5c6c6aU,
  0xbd6c447a3d124bceU, 0xbdf306d33d640fb3U, 0xbc949c4dbd4f00fdU, 0xbe07ba38bb5d0f0eU,
  0xbcb93326bdb9094bU, 0x3dee5a6b3bc911ffU, 0xbafdca7dbc5b160fU, 0xbd0a38b3bd1717baU,
  0xbd3fe2b73c16289bU, 0x3d933aa5bd28bde4U, 0x3ae0d2fe3c8836d6U, 0x3c824f8abc98dd5cU,
  0xbb6eb8993d24c5dfU, 0x3d902e6e3cbae736U, 0x3d69f9953d058583U, 0xbc9abc893d5268d0U,
  0xbbb428adbbe47e6dU, 0xbbf4ea433d8fea7eU, 0x3d81126bbd0dc7a2U, 0x3aa7c7a5bcdc38d5U,
  0x3d030e6abda1e983U, 0x3d96f54abcac0a05U, 0x3c1a2a173d1f9f13U, 0xbdbc6523bb8ad3ddU,
  0x3d1cf1efbd850878U, 0x3c1311263d85fb5aU, 0x3d399bce3d098fa7U, 0x3dec8e37bb237978U,
  0x3ca081283df6741bU, 0xbd139a1e3d0b7e5cU, 0xbd991d15bbed738bU, 0xbb1a0a183d5b3fb7U,
  0x3b2fd0a7bb3495f1U, 0xbd5d117abcd53137U, 0xbde3e9f5bd9ed1b7U, 0xbd03fd3c3cdc6799U,
  0xbd4975dcbb72f264U, 0x3cdb4161be029001U, 0x3af545ccbd4c8387U, 0xbc43b863bcc83358U,
  0x3d9a4b823d8a40f9U, 0x3abd4c1e3cf1e467U, 0xbd76e4903afd9b63U, 0xbc75a1dabdd4edfaU,
  0xbc1a69ec3d3edd63U, 0xbcbcf1e2bceb47d2U, 0xbba9f1ec3b1b2907U, 0xbdc2698c3ddffaa2U,
  0x3d62de8abd939117U, 0xbc9f3aedbd7abfe4U, 0x3d907effbdae4272U, 0xbcc0e1693c513c8eU,
  0xbda4c5c7bcb985a8U, 0x3d76f8d1bd8233b7U, 0x3d5abce6bd55fea9U, 0xbc906ce2be117571U,
  0xbe61d4ee3d1e6ac4U, 0xbc0de40fbd09efb2U, 0x3cace9babd4f86f4U, 0x3cc773e23d8e044eU,
  0xbcb0d07e3b7c88caU, 0x3cfe7c83bcef507aU, 0x3d9616233d715be2U, 0xbd1ea3563d854851U,
  0xb9f0016c3c18c1efU, 0xbd48634f3c695e4aU, 0x3d44a02dbd919fe3U, 0xbd88d8c73bd34560U,
  0x3d706650bcf8f1a8U, 0xbd293603bdb8d419U, 0xbdacb4e7bd8ca388U, 0x3db4ec423d08c4c2U,
  0x3c73f8e2bb1967e3U, 0xbc578fff3db2f579U, 0xbd12fe103be4c76eU, 0x3d0971eebe1459eeU,
  0x3d3f4360bd656d97U, 0xbbdd10eebc57cae2U, 0xbd8a91d43b3002bdU, 0xbc6274063d3523d5U,
  0xbdba66b2be044f99U, 0xbdc9c5ddbe5d8ea1U, 0xbd18582fbc55d294U, 0x3c4bde3f3d01f7a2U,
  0xbcc707f83d00424dU, 0x3cc0d524bdd08de7U, 0xb924c4b83c787a0aU, 0xbda764edbcab4bc3U,
  0xbd5458603d00a645U, 0xbcd570fbbdf78673U, 0x3d4cb8f5be037b5cU, 0xbd5191f93ca2d379U,
  0xbd5084e6bdac17b6U, 0x3ce9aecd3d0a74f9U, 0xbd8da4c7bd08cc71U, 0xbe067e24bd3a0eaaU,
  0xbd37e29abce44ee2U, 0xbd606d4c3a9d538aU, 0x3d23fc87bd119706U, 0xbd09ff35bcd402c0U,
  0x3cb06ac73a18a3c3U, 0xbd815363bd9261caU, 0xbe2505a23dcdd891U, 0x3db3400a3dc8a87bU,
  0x3d5e92f3bc8e8b84U, 0x3ccefb9b3da12d2bU, 0x3d620777bd7d90d4U, 0xbc67e2ec3c426e03U,
  0x3d3519923c58360eU, 0x3d1662e8bc56182cU, 0xbb38819d3d25d1c4U, 0xbc9de8f5bac77061U,
  0xbcc471393a06132aU, 0x3cbf69183c3e6956U, 0xbc92af093c949b73U, 0xbcb13f433d147642U,
  0x3d31919dbda2cb80U, 0x3c758975bcf1b11aU, 0x3dad17523cf57fd3U, 0x3dd583be3de2fb66U,
  0xbca89ba43d480dd7U, 0xbd1f41bbbc4c5152U, 0xbd173f3fbde98c4cU, 0x3d12124ebdcbed29U,
  0xbcfe44a039f07ac1U, 0x3d24943d3d092ec4U, 0x3d3e8ea83d3ed7e0U, 0xbccad4a23e20fbb2U,
  0x3d4e9c6eba8d0f46U, 0xbd905d043cf0c2c9U, 0x3ded13c5bd39f74dU, 0x3d21ebb53d91c8e3U,
  0x3bed79223deead33U, 0x3cd930423df7c842U, 0x3da883b83d820734U, 0x3d8b55573c98759bU,
  0x3d6e99833d37d0f6U, 0x3dc6a8263d0f29d3U, 0x3d017c5c3dc44877U, 0xbdc31600bd2ebb26U,
  0xbb78480cbc5908fcU, 0x3a074e9f3d026e9dU, 0xbdc040ae3d51e60cU, 0xbc01f3ffbcc1314fU,
  0x3c95d0eabd8b6bdfU, 0x3da4a3353d545ba6U, 0xbc1fb18b3da9d4e7U, 0x3d577283bc86d926U,
  0xbc125cd43d557eccU, 0x3c8daea9bd158288U, 0x3ca3c6adbd844413U, 0x3d594523bd8c7cd0U,
  0xbe142fed3d39a7caU, 0x3d9b46473c6cfca0U, 0x3d4bfdf73d889747U, 0xbafae9363c9d7584U,
  0xbdf6af60bd35c2e0U, 0xbd6be2f43de8702fU, 0x3d70505f3d97d274U, 0x3d2f039b3e06ba62U,
  0x3d1b828dbd16db3cU, 0xbd6bb7a93c869fafU, 0xbd196cf73d93005cU, 0x3dabb3ba3d4cacd1U,
  0x3c598ca93b8c60a6U, 0xbd1fff463d2c91caU, 0x3bebbfbc3ca47de7U, 0x3d3fc3ddbb8c1d39U,
  0x3c6725c6bd20abceU, 0x3b937b7ebc5b0bd0U, 0xbc93ef853cfbdc1dU, 0xbdbb6b4f3c8cfbcbU,
  0x3c73b486bd4193c4U, 0xbd617a78bdce2aa1U, 0xbe1373e9bdfc8b16U, 0x3d2e1cc0be1e1e1bU,
  0xbcf4c88f3ca40ef5U, 0x3d6f69f73ce72ec6U, 0xbdc25efa3db9d57dU, 0x3d1d4494bdc51e2aU,
  0xbd030630bb6e395fU, 0x3d9d823bbcf31b85U, 0xbcab0b9bbe707747U, 0xbd8a8af23d6fb358U,
  0xbe4f3f023d388633U, 0xbdb724f4bdb6b1f5U, 0xbddbf3e33d8048e5U, 0xbd90a9edbe0c9238U,
  0xbd625134bdeea3faU, 0xbd5ff5fbbbfea3e6U, 0x3b9cd7ce3d8a3f1dU, 0xbcb5733bbe0a718dU,
  0xbd93e964bdad39a2U, 0x3d82c1fb3cec5f06U, 0xbd23d4643d9ccf37U, 0x3df5ef4bbd442378U,
  0x3e06a7493e086188U, 0x3d0e808ebd82d128U, 0xbd89b4c53d634df2U, 0xbd1efaa13dde4859U,
  0x3d7e1a643e15aca6U, 0xbbf9318fbd764358U, 0xbcf804cd3d14fc80U, 0x3ca95f78bc8c0a4fU,
  0x3de5640bbc388affU, 0x3d9f7e5cbd81c9c2U, 0xbd03661a3a94c958U, 0xbd9514653d4b8702U,
  0x3d426310bd7583baU, 0x3d1b36933cdf9a06U, 0xbc35fe96bd746ef1U, 0x3d4d91e73d2c61a6U,
  0x3d45a0c6bdbe8b8aU, 0xbbd1c6fcbb870e9dU, 0x3dcf479cbcc01558U, 0x3dea9538bd353ec9U,
  0xbd3377fd3dd9c2a5U, 0x3a664508bc7c5ac6U, 0x3d3040fabd9209dcU, 0x3d8404c4bd6a4389U,
  0x3df8dc183d7b2aa0U, 0x3d8a9a793e127fd4U, 0x3cdc64c13dbcb509U, 0xbd4a42d3bcde640bU,
  0xbc121d6cbb30b342U, 0xb9cfb0f13d48ffddU, 0xbdcebbd13c3a9ffcU, 0xbae4a5e43d1be9e2U,
  0x3d343e923da40b94U, 0xbc02c004bd6973f3U, 0xbdad6b763ccda73cU, 0x3c842f1f3d8c1d17U,
  0x3d4c06343db83bcbU, 0xbd861f52bc67f153U, 0xbd0d0d543d20388fU, 0x3cbfe425bc9ddfbcU,
  0x3db961d13c30c40bU, 0x3d8261943cff66d3U, 0xbb94a113bdde0587U, 0xbd81c9fa3d23c945U,
  0x3cc0809abdf9920fU, 0xbcbe75f8bd22bd6fU, 0x3c85cb6dbd69ca55U, 0x3d28991ebd0650c6U,
  0x3d2977093ca80b57U, 0x3e059948bd956c5cU, 0xbc14dc8e3d35112dU, 0x3cb3748abd9de66dU,
  0xbdd079b53d9ab4a8U, 0xbd2511f2bd8ed661U, 0x3ab499e53c9ff212U, 0x3da440823c81c899U,
  0x3d75f60bbcfff6c6U, 0x3d2590253da9f2f1U, 0xbd06920d3d7011f9U, 0xbd27ddc5bc637c13U,
  0xbd461b46b9910334U, 0xbdce9adbbd9f41f4U, 0x3d546c6bbdac79a6U, 0x3d05c7b03d23738fU,
  0x3c4b39d23ccd9fe6U, 0x3d505a8fbda6b3ebU, 0xbdbe30e03d2b875cU, 0x3d0acf073d76a77fU,
  0x3c02e6763c360582U, 0xbddaf75e3d64b6f7U, 0xbdb451a2bd1274a7U, 0x3d6d6abcbe2c2430U,
  0x3ca33101bccb523bU, 0xbc909c58bc84fca1U, 0x3d7909c4bd946756U, 0xbd292e91bcccc3a7U,
  0xbc1bc83ebc1f2348U, 0xbc2a371abdcb6620U, 0x3d414805bd86f610U, 0x3d90e49bbc143a47U,
  0x3d869b873ce00451U, 0x3cf96dacbd40faf3U, 0x3da732f1bde89617U, 0xbddb1259bcb234a2U,
  0xbe77376b3d9506aaU, 0xbd362734be08eb21U, 0x3d840070bda3453dU, 0x3df6fbb53dca95c4U,
  0x3d1fa1dfbdd407c0U, 0x3aab4be83d98b6e5U, 0x3c97cc843c87f3d1U, 0xbd9d1523bc5b6fa0U,
  0x3bdabc40bd015958U, 0xbcced777bd0352f5U, 0x3bfe8b62bd9829f1U, 0x38786465be25afacU,
  0xbc31470cbcab1660U, 0x3d09453fbd7f6ccdU, 0xbca25820bd0bb659U, 0xbdb9dfcebc5a095dU,
  0x3d49504fbc780308U, 0x3b8562a6bd95283bU, 0x3dd31ad03d6b2659U, 0x3d5fb02c3a63d867U,
  0x3d747b873d34aa57U, 0x3cbbafb03cc0a466U, 0xbd04c4873d19e980U, 0x3dfe11eabd43df8aU,
  0xbcb0f86cbc952359U, 0x3d8de4413d9a4b67U, 0x3c8b8c463d858f54U, 0x3dae75b0bccb7d30U,
  0xbd93a2353b093568U, 0xbc812b99bae70d14U, 0x3d76607e3d644668U, 0x3cc3bd41bdfba7b6U,
  0x3db4a1bbbd1c612dU, 0x3d8d360ebd473292U, 0xbdb8f3fabcb4f578U, 0x3d1215e33c428602U,
  0x3cc7c51c3da9a5e0U, 0xbc8bd4eabd353256U, 0x3d4edbc03df92db7U, 0x3c9c4c9c3db73d4bU,
  0x3d4cc4533d9c8a18U, 0x3d5bfcc9bd31621bU, 0x3b3fe5e2be1aa339U, 0xbd43bfb33d732912U,
  0xbc90984ebc224d2eU, 0xbbdcf720bdb549f9U, 0xbd49bd4f3ceaa7c5U, 0x3d5e4493bc63f34dU,
  0x3b855fd23c80ca80U, 0xbbf986783c1ea380U, 0xbb12e2c93d8c534cU, 0x3d9be379bd868c20U,
  0xbc5514e7bd0b7122U, 0x3d6a9b233b8b6182U, 0xbc8afebe3ddd6dbcU, 0x3dbae25dbdb36cd1U,
  0xbd292f92bd7e2485U, 0x3d8ab374bd927b68U, 0xbaa701eb3d6d8674U, 0x3d7efb023c8f247cU,
  0xbd821cf5bc43e98dU, 0xbb83a7d3bd86b53cU, 0xbb6bc2edbd28e863U, 0x3c358492be243cf0U,
  0xbccd1e13bda99d5eU, 0x3d2a42bebdd09e5aU, 0x3c478e133d483439U, 0x3d1803723cd1654fU,
  0xbd436af43c2be500U, 0x3b6d7acabd46c861U, 0x3da5a8103bd2e967U, 0xbd2a59c13d18b42bU,
  0x3d891ed33d58dd8aU, 0xbdbed270bd6bd244U, 0xbca8a1a4bdc92acfU, 0x3d820bc23c29420bU,
  0x3c9b3c0bbd12b3bcU, 0x3dc85a053d7bdc3aU, 0x3d5cb8a0bbb11fc0U, 0xb98699413df325cdU,
  0xbc4cf733bd0df689U, 0x3decb1543b240ea9U, 0x3cadf27d3df3f95aU, 0x3caee7e4bc9479d4U,
  0x3def1c57bd024f14U, 0x3cfbbe5f3da02d44U, 0xbd4df0053d59a0e4U, 0x3cf047cabcc57e77U,
  0xbd089036bdbea253U, 0x3be585db3d4e13efU, 0xbc295537bcd0bd7fU, 0x3d8f9a9c3d7c1011U,
  0x3bbbf32ab9e8685eU, 0x3d6716823d40eb5dU, 0x3b4cd8703bf93223U, 0x3c29d34a3da9cf55U,
  0xbcd55d863d140358U, 0xbd473f273d2a03a0U, 0xbd3e7c77bd329cc9U, 0x3dee6e113dca3f39U,
  0x3bcfcee5bc849403U, 0x3d3c31a53d6334a8U, 0x3dca51313def47bfU, 0xbcf239c4bc9d3be1U,
  0x3db377a23d87b78dU, 0x3d46cd8cbd5377edU, 0xbd7c3519bd9484d5U, 0x3d352146be0acaafU,
  0x3dc7aa04bd9aa0d7U, 0x3cf7a9983dba2967U, 0x3d85ef1e3dfa60e2U, 0x3ccd1c8c3c773c1fU,
  0xbd8e369abd5f4ae9U, 0x3e175196bd750d1fU, 0x3d102bb63d83cd98U, 0xbda334f5bd98e7cfU,
  0x3ce50c73bc65ea84U, 0xbbfa9a233d268f7fU, 0xbc6f4ae83d3cd768U, 0xbd7f89d23c8a64b7U,
  0xbd3d3edd3d804df6U, 0x3dfdc20abc38820cU, 0x3d23af243d765d2eU, 0x3d756dd4bd51a21eU,
  0x3aa19eb33df62ec7U, 0x3b9c133d3d97f69fU, 0x3dd9fd103d89c69aU, 0xbd36ca7e3c87dd95U,
  0x3da7e482bcf7d267U, 0x3dcfdfa5bc64d93bU, 0xbd245fd93d50fde7U, 0x3c55bbcd3dcf35e9U,
  0x3cea2e293c65854dU, 0x3d3d8a043c96b445U, 0x3d66ecb23dba4ef6U, 0x3c4bfc923d2dd181U,
  0xbc0845b43d92808cU, 0xbcde4e2e3db245c1U, 0xbcdbc7d6bbcada58U, 0x3d4c812c3d4d21b8U,
  0xbd37adeebd885ef5U, 0xbd83f5a1bba17f4eU, 0x3dbd4b69b9eec3daU, 0x3c36a18cbd6ee6fbU,
  0xb9620cc4bc3db9e4U, 0xbb84c45bbd5cebeeU, 0xbce423133db70915U, 0xbd7eb88dbcf1a6c2U,
  0xbd11d4723c8ab267U, 0x387527a0bd42da6aU, 0xbd3e012d3d603770U, 0xbddab889bdd5b2cfU,
  0xbdd8f722bcfefa01U, 0x3d4517713d919493U, 0xbd46d6563dbd645fU, 0x3c17d6bfbd658da6U,
  0x3cb681c1bbbab1fcU, 0xbd027478bcf25df2U, 0xbd6b18303d6db23eU, 0xbbe8dbfabb46d321U,
  0x3d4d6044bc757e6aU, 0x3c1bec11bded77f7U, 0x3d517f413cfffc88U, 0xbdae9518bd180992U,
  0x3c7f4b67bb1be2daU, 0xbd5b6ffebc9d8851U, 0x3cfb58333cc0346bU, 0xbc7edad73b2ace40U,
  0xbd3313553cddc0a5U, 0x3d110953bcfaef04U, 0x3db392e4bcb964a7U, 0xbdaa5c94bcb6911aU,
  0x3d634c43be03dbdbU, 0x3cf2a2463d3bdba2U, 0x3d19bf233dede0a4U, 0xbd92ef0f3c6ae5b8U,
  0x3de959df3d766836U, 0x3dd34b693dda2991U, 0x3d39cc3f3e32f083U, 0xbdcc4de2bcbf12bdU,
  0x3de5e351bd2dbc45U, 0x3d244e4c3d38fab0U, 0xbdc68cd7bc949abbU, 0xbd26575bbc32398cU,
  0x3cdd620ebbb0165dU, 0x3da3e4973dbdb91eU, 0x3d03d4cd3d686b13U, 0x3d502f793d230d52U,
  0xbc075792bd5a5f93U, 0x3e0961033d0cf419U, 0x3e01ee943e15f47eU, 0x3dad1de23d2ffcfbU,
  0xbd799fa5bd4e659cU, 0x3d6beb953d370639U, 0xbd52c3f7bd82e294U, 0x3de0a4e53db8ddd0U,
  0x3d0cfdffbc794ce6U, 0xbbc3a0c4bc7199bcU, 0x3dcbb3513dd8fdb1U, 0x3d73c1963da8a584U,
  0xbc2b688fbc7cdb35U, 0x3db6f401bbdda729U, 0xbd694ed13dad6647U, 0x3d2e0defbc07d03bU,
  0x3db310e93d1e712bU, 0xbc36a9753d79a8d7U, 0x3d9fd90a3e0107ceU, 0xbd5b448cbce6abb9U,
  0x3d02be623d0d201aU, 0xbccb16553d83df81U, 0x3d9ac52fbd592fb0U, 0xbd16e17bbdaa91fbU,
  0xbb4f7fdb3d4d087cU, 0xbc37fbda3d2a59b3U, 0xbcb86fd03c102224U, 0x3cd03800bd41f19dU,
  0xbd28a1e3bd9e8b80U, 0x3dcf16583d59397bU, 0x3cd1a01bbd658e56U, 0x3de5f539bd7e4022U,
  0x3d56546b3d2f54b0U, 0x3d40281b39eeeb9aU, 0xbd3a1d2cbd8f3356U, 0x3c112984bc343127U,
  0xbde9048d3cb393c9U, 0xbd370902bcc45815U, 0x3ccc5997bdcadd07U, 0x3d6499653c67c3d5U,
  0x3d6c19b0bc72d03eU, 0x3ab9a84f3d18216cU, 0xbd263cbdbd304ce5U, 0x3d338303bd8e3042U,
  0xbd4cd0b9bcda01d6U, 0x3bf8463dbdcca135U, 0x3cf1a639bd1581abU, 0x3dd5b946bdf82053U,
  0x3c89f090bd82323cU, 0xbd7caa1abd4cd475U, 0xbc918600bc9e5d2cU, 0xbbc77f3ebd7ff1f5U,
  0x3c3b7ad1be22f04eU, 0x3d5d081ebd0510d6U, 0x3d0c061abc0b6412U, 0xbbf3eb48bdb0d9aeU,
  0xbd661b283cb8fdc9U, 0xbcd7515abd89060cU, 0xbd7bbef1badfe851U, 0x3b53156d3c88d188U,
  0xbd8ee1d43c1b0825U, 0xbcb589063d657487U, 0xbd9e7bfcbd8fbf2aU, 0x3b1c803bbc2c50b1U,
  0xbd252be53c43b44eU, 0xbca704b6bdb291f9U, 0x3aba12b33cc52a43U, 0xbd555409bca953a4U,
  0x3cfca2f1bb8415afU, 0x3b8193abbd3498b8U, 0xbdbb02d73d23c54eU, 0xbd43cbf5bdb7022eU,
  0xbc8cc235bc95c52fU, 0x3d85604bbda1d89fU, 0x3c97f5aebd86deecU, 0x3ce174dfbd6f8f4fU,
  0xbd85e563bca3623dU, 0xbdb6fca0bd197b64U, 0x3d58949abe0fa3d0U, 0x3c23b13f3c4ea377U,
  0x3d2c2d25bd9c0b40U, 0xbc9e2d2dbd85986bU, 0xbd519fe33c3918ccU, 0x3c801bed3c9b6bd8U,
  0x3db2a3b7bdc22ad2U, 0xbd82c1afbc696756U, 0x3cd5048fbdc59fc5U, 0xbd0d1e2ebd854b6aU,
  0xbd505e20bd779928U, 0xbd828d7ebd4d7e64U, 0x3d33eaee3cbad0bcU, 0xbd386cddbceded02U,
  0xbd65ae8fbd72afd7U, 0x3ca3e3e43c864389U, 0xbdbc9881bdaedeb5U, 0x3d6b809b3c246115U,
  0xbcc8bdfa3d43a6f0U, 0xbc97a7efbd68aecdU, 0xbd358d94bc89bedfU, 0xbd556dd63c23316fU,
  0xbd5c80473c81526eU, 0x3cb1780f3bbde93aU, 0xbd63e9c8bdcf872eU, 0xbc10a9f23c782b87U,
  0xbd95a0cabd61ac36U, 0xbd4ec3afbd1a55f1U, 0xbd0b064b3ca3faa8U, 0xbda5e4ae3c85b015U,
  0xbd54dd9dbc91452aU, 0x3c5a2b86ba5a58f2U, 0x3d01199cbdb6bc75U, 0x3d04fba03d9ce3a3U,
  0x3d574fde3cb7acc5U, 0x3c20aef9bd35efa3U, 0xbd8882823d519cc5U, 0x3cf987cc3d2db7f8U,
  0xbade53463ba9a2daU, 0xbc33e3f13c84bbbdU, 0x3c8a79d8baf66409U, 0x3d25fb02bdd9bf4cU,
  0xbd5961dbbda5e5ceU, 0xbda21d21bc3053f1U, 0xbd6af8493cb5e566U, 0x3dc8da30bd2229c3U,
  0x3caad617bd1d6640U, 0x3df8f97cbdeaf986U, 0x3d27bb19b8e21f8eU, 0xbcd451fdbdceb255U,
  0x3c84b7413d8aaeceU, 0xbcbfffb63cd859a5U, 0x3dd2ac2d3c3d81c6U, 0xbd258dbd3dc2b326U,
  0xbc43e8bb3d9a109cU, 0x3d5683ccbe0b70bfU, 0x3df8bed3bd8ba1d9U, 0xbc1b6427bd462514U,
  0xbc9a64bcbda6af09U, 0xbc96a2d43b8fe8f3U, 0x3c8f4f663b801caeU, 0xbd4149e73ca400dbU,
  0xbd8ccaf5bd014822U, 0xbbb395b0bcf01a4aU, 0x3dac67dcbd3f00d1U, 0x3d5c4c85bd93e870U,
  0x3da761b6bd254b21U, 0x3d9716773db76ec9U, 0x3ddeb2bbbdbfe363U, 0x3d5ab5b63d995490U,
  0x3d32345fbcfe5f09U, 0xbc8b151a3cd36627U, 0xbd83764cbb0a1df5U, 0x3c91ae093daadb63U,
  0x3c47e354bd55e7c4U, 0x3cfadd3d3c8474f1U, 0xbe39ad7c3ccc3767U, 0xbc7676da3d2b02cfU,
  0x3d71572cbdaba710U, 0x3d868f383d5094e1U, 0x3ca64a51bcd2bde8U, 0xbb451034bdd410a6U,
  0xbcebb2bdbb83c901U, 0x3d33529c3d38a808U, 0xbbabcab5bbd469eeU, 0xbcf099b5bda13450U,
  0x3b5d0920bd1ecd31U, 0xbcdd5298ba9fac63U, 0x3d88459a3e07f0f3U, 0x3d14b31dbca527a7U,
  0x3c9c6831bdab4900U, 0x3cac132a3cc23226U, 0x3d5689cc3d7c3448U, 0x3a712eb2bbef6d62U,
  0xbd9d6feb3d0c4c25U, 0x3de500b3be367d91U, 0xbe105aed3da5dc2bU, 0x3d9706443d6bd417U,
  0xbb538e10be0ea535U, 0xbdb31a233d07e42aU, 0x3d03d3ef3cd53084U, 0xbc2b23643c57faf0U,
  0xbcf9f8a83d67db57U, 0xbd22a2463c973786U, 0xbbd40f3fbd05d1c8U, 0xbc2926a6bdb9c5d9U,
  0x3dbda1fa3ce96aa6U, 0x3c970e66bb769796U, 0x3dd16d67bd544dafU, 0xbd99a34fbc99d62bU,
  0x3d83ef74bc99ebf3U, 0xbd691781bcfc0b31U, 0x3d8e75ecbd5cf671U, 0x3b32779c3cb62a52U,
  0xbc272d10bd0ed3aaU, 0x3d1784b73ba55185U, 0x3d07200b39ef1f2fU, 0x3d2b67a83d5f6fa2U,
  0x3c120804bd96292bU, 0x3b4247743c361124U, 0x3c93aa19bd047275U, 0x3d26cdcebc2e2d8eU,
  0x3d4cc0b23a1764c7U, 0xbd9fbd0d3c6cf780U, 0x3d21d2b2bc56d695U, 0x3d27b5e6bcadcc0aU,
  0xbcdbb752bad7e178U, 0x3d6237503ce042aaU, 0x3d1ae2e63d8fd897U, 0xbd991894bda31f39U,
  0x3c1c79453e046059U, 0xbd54d176bc689a7aU, 0xbcee5dd73d3f640bU, 0x3d17b5f1bca8613cU,
  0xbd67b9143db5aba8U, 0x3bebc8863d048912U, 0xbcabd721bbb0b362U, 0x3cd93c5fbd557332U,
  0x3d5f186b3d93a725U, 0xbd2498ff3d62b3ceU, 0x3d97ec283d2738aeU, 0x3e08caffbce476a1U,
  0xbda3bcc93cc1dccfU, 0xbc54f9043da18b57U, 0xbd34d775bd79df43U, 0xbcd3070d3d10479cU,
  0x3d932fa53de1119eU, 0xbaa5026bbd01dcf2U, 0x3dae8ef93c619b28U, 0x3c4c5f333e301052U,
  0xbb11e9da3d1b7513U, 0x3da21c2a3bfbfb5aU, 0x3e2738b8bd2ebc3aU, 0xbd311c123c0e970eU,
  0xbd233be03b4dc21fU, 0xbdcdca37bd833659U, 0x3d9c1b883be22fa8U, 0x3cd0f163bd10a7c6U,
  0x3d592df4bc8b89b4U, 0xbd138052bcd1a144U, 0x3cf61b59be05c83bU, 0x3dd2004dbda46862U,
  0x3cb789f6bd708c11U, 0xbd87431f3e137c8bU, 0x3e28dfbabd8e1428U, 0xbca7ddd33c9938cbU,
  0x3dc68a483b3a753fU, 0x3dfb55ca3d3f49b6U, 0xbcd4b6823d9a05dcU, 0xbdd39fe73e0a364bU,
  0xbce5d78a3cb638baU, 0x3c3c53b7bc6a9557U, 0xbe47a132bbf3fb84U, 0x3c87ac11bd662433U,
  0x3d1cc1f2bd8eb1b1U, 0xbd5aeb423dfa7f87U, 0xbd69ba75bdfb20c3U, 0xbc41c5a6bc886ac6U,
  0xbe50b5ab3d1728deU, 0xbdab86b2bd1155dbU, 0xbbf8b060bc3eb77dU, 0xbd9dc775bdafbedaU,
  0xbdc64208bda848d9U, 0x3ce411ec3d865d10U, 0xbcf7556a3e173cfeU, 0xbcd28dccbda5b3b1U,
  0xbd8ea2b93d35ad2cU, 0xb9689d08bd8ed6b0U, 0x3c53232abce5c438U, 0x3d8e684cbd3b4a93U,
  0xbdd5e9b03bb7fbeaU, 0x3dba9359bdbee492U, 0xbdf217043cd33322U, 0x3dea6d593d5e7bceU,
  0x3cdcbadebdacd646U, 0xbcb3a362bbb9ca63U, 0x3d39b7ad3bed6876U, 0xbc232cd8bd0885bdU,
  0xbcb055e9bd58b5aaU, 0x3ce372d6bd80bb60U, 0xbe0957db3dc3b5ceU, 0xbb79f0a0bd3b49c9U,
  0x3dbf9919bcb9794fU, 0xbc8bb48dbdbf3174U, 0x3dd59abcbd600d12U, 0xbd44c8cb3c8464ccU,
  0xbd3f32dfbd877e65U, 0x3c83a1c8bd6084f0U, 0x3d91ac7abd81dc89U, 0xbd3950ba3d8e26fbU,
  0xbd3d060a3d0e3ecfU, 0x3c374734bbd0b8d9U, 0xbd57cebdbd8c75c1U, 0xbc8f19ab3dcad52cU,
  0x3baf8f87bc12a156U, 0x3d098279bd5f9d5cU, 0x3cb8e529bd0b08b2U, 0x3d3fcd3638b00935U,
  0x3ccbbbbbbcd6fd53U, 0x3d2cdc3fbcd32d38U, 0xbd3d40443ccf91c8U, 0x3b87b74bbdd2a3f9U,
  0xbb30e793bd21939eU, 0x3ba8cb00bc5e19ccU, 0x3c539937bd7119dbU, 0x3c2e7b34be284d3bU,
  0x3e02370dbce5f287U, 0xbc79a178bd621e6dU, 0xbc3af27fbd5a927dU, 0xbcdc6f963dd141bcU,
  0xbd957ced3d0090efU, 0xbdbed8543d1830dbU, 0xbd3bfcf83dc87e9fU, 0xbd76c9813b3980c0U,
  0x3b6b9a1fbb97b66aU, 0x3db8858dbd0e3f68U, 0x3c57ce1bbe439eaaU, 0x3c008d133d9560a5U,
  0x3d52c942bd317c0bU, 0x3d4d5faebc969464U, 0x3ae0fb00bd116b0dU, 0x3d22fe0cbd024b7eU,
  0x3da3ba3c3d5e4c39U, 0x3de517c53da4c45bU, 0x3d947a813d11f3c3U, 0x3d62adc9bdcc9f71U,
  0x3d53cf4cbd9c186bU, 0xbd0526e13d8ea2a5U, 0x3c832f083ceff1e0U, 0x3debd67e3c20930dU,
  0xbc8998e0bd4f9090U, 0x3d9707943db042c0U, 0x3dd76f763d65d6c1U, 0xbc769d71bdf50a4fU,
  0xbdbe663abd5423c4U, 0x3b6797413d53421cU, 0xbd0a36bb3d28d9e1U, 0x3d10502cba5e7cb6U,
  0x3d4b6b133d4ac9ecU, 0x3cb4ac7dbde7cdbbU, 0xbd0f923abcdf6d08U, 0xbd29ca163be1dc04U,
  0xbc434e97bc97e765U, 0x3d4500b33d0b72b4U, 0xbd8238bcbcd1cc36U, 0x3d4f5fdbbd1c4593U,
  0x3dc4238dbd61f712U, 0x3d7d5771bb7a08c6U, 0x3c1fab293b989b54U, 0xbdf915d43d7a3ffcU,
  0xbad8f68d3c11e481U, 0x3dbb5dd8bb7b33e8U, 0x3e0f86b4bcc8faadU, 0x3d407ab13bdcf8f3U,
  0xbc98a447bdf00bbbU, 0x3dbaa9c73cfe1f9bU, 0x3c931255bb39cb78U, 0x3bec9ebfbc9dcf5aU,
  0xbbafb1103c82794fU, 0xbde1ecc33bdf1122U, 0x3c0f2599bc4b182eU, 0x3a07680c3d50a129U,
  0xbb4d04b53c95b3d5U, 0x3d0930173ced1ea0U, 0x3aaba1283cbbb608U, 0x3d9b572abdbd24a1U,
  0x3cec22c7bd1d4f76U, 0xbcfd603fbd8095acU, 0xbd91c1e5bdca7692U, 0xbb11a6e03d33ea06U,
  0x3d1275fabd98afe2U, 0x3d57669ebd390023U, 0xbcd2531ebc33569fU, 0xbd33deefbcd6dcbeU,
  0xbde8a0d53c100583U, 0x3d7e740a3ce09706U, 0xbb8e6612bc2d293dU, 0x3c8e8fafbdc415d2U,
  0x3cd17d90bd29409bU, 0xbd0cf900bb4362d0U, 0x3d7776a8bdaedcd3U, 0xbe367cadbd82876dU,
  0xbe19e4303d5e774bU, 0x3d234d92bda56108U, 0xbc8c2f07bd6fe866U, 0x3bc438233d6c99a8U,
  0x3d99520ebcf97895U, 0xbd502a6cbd7eedd9U, 0xbd0b8549bdcdc507U, 0xbe0c65fa3d1a4ea7U,
  0xbae34ece3c66e9a4U, 0xbc62c5c0bdd25f0dU, 0x3d8e93b2bc6c1589U, 0x3d2f10c1bc3c5059U,
  0x3d6516afbd6a1bdcU, 0x3ccd3f24bc7a183eU, 0x3d13e81338318828U, 0xbc9446f9be172432U,
  0x3d1dd6fe3d3acc34U, 0xbd338b093d5b3c7eU, 0xbd47b8a4bd0ba439U, 0xbdbfb021bcde8d47U,
  0x3d22c63ebe236f88U, 0x3df4b32bbd6d763aU, 0xbd1da540bd8a7088U, 0xbd7fd14f3dbf19d1U,
  0xbcbda4ffbd72061eU, 0x3bc10502bce96413U, 0xbd11b1633db59502U, 0x3bc090ffbc4dbdb7U,
  0xbd57f7453cff6e7aU, 0x39cadf5dbd2c06eeU, 0xbd288df1bc16e0dbU, 0xbd536cf73daba0a8U,
  0x3c37d4dbbd9cd084U, 0xbd8e0bd5bd02ea5fU, 0xbc9f1d1bbdc06036U, 0x3c76f086bcac6eb6U,
  0xbd2cc747bcf0347eU, 0x3ddcb5acbd47d18fU, 0x3d99a9da3d65fd2cU, 0xba465c04b99f4508U,
  0xbd1119b7bce05b2fU, 0x3c473303bb364b26U, 0xbd26baef3caea722U, 0x3dfb92fc3d86da1aU,
  0xbc134759bd96a409U, 0x3e03cfc43d763024U, 0x3db7b4433de86cf7U, 0xbc5cb8c23c96fe6aU,
  0xbda84dd2bdc4dc7bU, 0xbd1202bf3ba619beU, 0xbe122688bce4eabdU, 0xbd52685a3dbaf441U,
  0x3c0c5a96bd338e7bU, 0x3d4cf322bd0a67e6U, 0x3bd742e0bdb1ca19U, 0xbd95b42f3d37de1bU,
  0xbc0c35a43db34be5U, 0x3d9757cabd11050bU, 0x3cbc2473bd49017aU, 0xbdb23c723d87d91bU,
  0x3c8fd1a53cd90675U, 0x3df4a706bda1c112U, 0x3c52f0503db950afU, 0xbd73e8823d85c6a9U,
  0xbcc384ddbcac9359U, 0x3d80c665bc339d6aU, 0x3dc439b7bd96773dU, 0x3d675fb73e043361U,
  0xbb890878be1f2b75U, 0x3dcbc3823d3fb9daU, 0x3dded4cebd8a0ceaU, 0x3d91a7c7bd711f5bU,
  0x3cdff7cb3bd7aee4U, 0xbd47c5cf3c652dfbU, 0xbd12dab13db770c4U, 0x3d046aa33d595e17U,
  0x3d45a9a13d21bc18U, 0xbceeb8dd3d33e070U, 0x3d02efd53d2bcd9bU, 0x3cf532ea3d1b3d22U,
  0x3be71339bc561702U, 0x3ce81e69bc450e45U, 0xbc0c3c39bdd03e39U, 0xbd05e6e93d72e82fU,
  0x3dba71483d840c65U, 0xbcab52c63c16cfb1U, 0xbd9ddb08bd3fb9c0U, 0x3e08a0723d84e86cU,
  0xbd0360c33d5cea3dU, 0xbc4d03e23d6309d2U, 0xbc2fafd5bcdb075cU, 0xbc7096efbdfe458eU,
  0x3b6636c43c4beb95U, 0xbbf1a0adbd602e2cU, 0xbd74deaa3d22686fU, 0xbd987526bd7c4152U,
  0xbe012299bce76748U, 0x3da2ab66bd83b3f6U, 0xbb2499da3d52095cU, 0x3aa7bf933d5d21aeU,
  0xbd8da72f3d233677U, 0xbd7f71b1bcce8818U, 0x3c1c68bdbe353a4aU, 0xbe20a891bcef555aU,
  0xbdb5f60d3dd9227dU, 0xbdaa748fbd463c95U, 0x3cddae9cbcfcf43aU, 0xbc68b5cd3d338b3aU,
  0x3d055225bde0fcfcU, 0xbcf8a45ebd2af599U, 0xbd4513a03db10084U, 0xbd9b79d7bd02cfe4U,
  0xbca0076a3dbf3ec4U, 0xbb538b2abd806374U, 0x3c954532bceb094dU, 0xbd4ddde4bd14072eU,
  0x3d45ef5ebda514b7U, 0x3d303770bd7380d9U, 0x3cb21509bdf49cf1U, 0xbd7fa7433dd482f8U,
  0x3c38f7c6bc391393U, 0x3ca149b3bd3486b0U, 0x3c951bdc3dd03d39U, 0xbcba73f3bd32dc62U,
  0xbc75c90fbd88b960U, 0x3d1360993d5211f5U, 0xbdb784273d8d7bcdU, 0x3d2f2296bd9183d1U,
  0x3c7e61503c9c827fU, 0x3d0f4f1d3d133cd8U, 0xbcb75c02bd3c74caU, 0x3da5867ebe0348b0U,
  0xbe0567643ce13afbU, 0x3d27b6c5bd6da4f1U, 0x3e06d02b3df2dae2U, 0x3d0c8be3bd73204aU,
  0x3dd038fcbddbe25cU, 0x3e2b74543cda3876U, 0xbdf1157d3b92e84aU, 0x3d5c95863cbcfe7fU,
  0xbc61a9ba3dcb2367U, 0x3b69f1b63d0ee103U, 0x3d81993d3ce2113cU, 0x3dd7210e3d87fb31U,
  0x3d817d2d3ce4c3ddU, 0xbd229ceabc97de4aU, 0x3a8de6ffbb8b89f1U, 0xbdbc368c3d7b6655U,
  0x3c97c3923d884effU, 0xbb1236f5ba0eff5aU, 0xbc034382bcec886cU, 0xbd067d403d11f60cU,
  0x3d1468283d3ea780U, 0x3dcbf046bcf910e2U, 0xbc031066bd98798dU, 0xbd43fd04bd24946bU,
  0x3d446f0a3c4879eaU, 0x3e0c558bbdeadbd7U, 0xbba1e8973df9d633U, 0xbdcbdf763d51be27U,
  0x3d34e4a03c0b829fU, 0x3e013ffc3e00fab8U, 0x3d51dc7ebd623039U, 0xbba2f7523d14e937U,
  0xbae3d7a8bd183d44U, 0x3cf97d633a01faaaU, 0x3a52f1d8bc899d57U, 0x3d79d513bdbb5908U,
  0xbcb5f0be3bc7aeceU, 0xbd372ca2bd3f910bU, 0x3c9eaeb03b530582U, 0x3da7fc33bd3e163aU,
  0x3ddbaead3e17abe1U, 0xbddc19c73d0248cfU, 0xbc29d6623d90e65fU, 0xbbd16db13e177c64U,
  0xbd80c3313ca92066U, 0xbda2f804bc859d1dU, 0xbd83d3bb3c92bd17U, 0x3d8894e83e1ec429U,
  0x3d994d41bd432c8dU, 0xbd2acddf3d18810dU, 0xbd0d8b50bd742806U, 0x3d924859bc9e6fe6U,
  0x3dc9ba3a3d3a94a8U, 0x3d495fe4bd899f15U, 0x3cd6dfea3c213796U, 0xbcdc4a9cbd18a867U,
  0x3d896e20bcf412eeU, 0xbc84f0fcbd2355adU, 0xbda51448bcb13458U, 0xbc30289abb65c1beU,
  0xbdb93a20bdc6ad51U, 0x3d61a6dbbd68b02dU, 0xbd376a85bd8a6ce5U, 0x3d6184e93ccf2a4bU,
  0xbb0aa041bdc41454U, 0xbd369ebdbd06f463U, 0x3bd6e700be3d98b6U, 0xbc0ad1ba3d0e065fU,
  0xbe05e2933d463694U, 0xbdbb7a5fbdace1cbU, 0xbb8256493dc2025fU, 0xbcbbfe3abb629973U,
  0x3c7b926d3ca36fbcU, 0xbd775cb33d0b7c80U, 0xbd3713cb3c0dca10U, 0xbe08fe4e3d50b07aU,
  0x3cf189e2bc9964a3U, 0x3cbf7666bd6983bcU, 0xbdf9c56c3ced46aaU, 0x3e0514863cd84b5fU,
  0x3d8a5f4a3d897a51U, 0xbd6f45183dadfb67U, 0x3b9b657e3cf915f9U, 0xbbe95d6dbc95b4e7U,
  0x3d8896c33ddbfe87U, 0x3cf68cc4bd673303U, 0xbdfd7fcabd9c668aU, 0xbde0c264bcd91741U,
  0x3ca8eaa73d494cebU, 0x3cd65c54bcab1c44U, 0xbe5acc38bdd5ad57U, 0x3e381afd3ca320adU,
  0x3d70c0adbdb81d40U, 0xbe10d92cbc1e9a50U, 0x3c96ee413d9fc4d6U, 0x3d009475bca65018U,
  0x3d5b7bb2be1c32f4U, 0xbdd23df43d730e1dU, 0xbd0460d3bd2d0029U, 0xbd96bf793da811cdU,
  0x3b04b3e6bccc8e1aU, 0xbd59e9be3d8b6af6U, 0xbd7b285bbdcb37c3U, 0xbbddafd6bda945c3U,
  0x3d5da81fbc066727U, 0x3c485a623c83225eU, 0x3c97d86d3b40e738U, 0x3db62332bd3e9a55U,
  0xbd2c5dc2bd611818U, 0x3b013e64be1062bcU, 0xbdec9e463d1b0d64U, 0x3d1dc54abae84a30U,
  0xbcdd4bd43ccb0068U, 0xbddc36fbbc545453U, 0xbd94cf4f3d8d5716U, 0x3d11123e3d14225cU,
  0x3ba88d763d5ae437U, 0xbc8aeb63bd1dba74U, 0xbde84456bd5dfde6U, 0xbdc27a14bc9c5c80U,
  0x3c0c77a63c18c14aU, 0x3dba986d3cd56c34U, 0xbc3bb522bd8dca14U, 0x3d585002bd6b2394U,
  0x3b281fc0bcb0e7aeU, 0x3c091bafbd20dbb5U, 0x3ccbc39a3de978bdU, 0xbda158b43d43e49eU,
  0x3d27cdc5bc92e398U, 0x3b8216aa3d390e29U, 0x3d3087aabbba29b7U, 0xbca1ad253e298b57U,
  0xbc3bf7bcbbf758f0U, 0xbba6fd0abda6c219U, 0xbc96b794be24ea0cU, 0x3bbe45d0bd01e1e2U,
  0x3dbf112ebcbfc6a2U, 0xbda2fb61badc1e0aU, 0x3d5b93f6bc94e49cU, 0x3d65c64c3d3dcc04U,
  0xbcd8341f3dac5a5fU, 0xbdcd9eec3d892fcbU, 0x3d7de52d3d9658f5U, 0xbca85993bd3dd09aU,
  0x3c43830f3da91f31U, 0xbd880b8cbd4e71a2U, 0xbd82a393bd7f1a9eU, 0xbd065ebb3c9659a8U,
  0xbb89dc8bbd7c4e4bU, 0xbda73b5d3cbd30baU, 0xbca2a2903c77bb95U, 0xbd556c0abe067d25U,
  0xbd37b0c9bccf1176U, 0x3cc005dd3d259aeaU, 0xbc19835b3a90705cU, 0xbbc3b0b3bb7a9166U,
  0xbd20820ebdcb4cdaU, 0xbcb7518e3c6a4b3eU, 0xbc3270183cdc76e6U, 0xbd360e7cbdbede48U,
  0xbdb81b53bcbf5e4cU, 0x3b1c1ee4bd74a95eU, 0x3dec660b3d059982U, 0xbd2f2fbcbcd425f3U,
  0xbd818a76bc5d7858U, 0x3a3741adbb94a7ceU, 0x3cec21943bd6043dU, 0x3c68cfc2bc8447aeU,
  0x3c92022abcf99704U, 0xbd0687473c1feadfU, 0x3c1236e23dcb8d59U, 0xbd66b2c23c92ee60U,
  0xbd2c59e13dfa5fddU, 0xbd8afdf43db12192U, 0xbc886ee4bcda02d6U, 0x3dd680cabc656b8aU,
  0xbbedbb463cf3f56fU, 0xbc0a331a3bdfefd3U, 0x3ceb33dcbdc9e00aU, 0x3baceac43d457c11U,
  0xbd92f02f3d599d92U, 0xbd7d9dcabd87b66aU, 0xbc151ed53d444687U, 0xbd7bebeebbec1650U,
  0xbe2c0dcebc5a2b0dU, 0x3d1418b3bc22b5ceU, 0xbe6a7466bd9ee0c0U, 0x3ced0f2d3d738c4aU,
  0x3c2d7aeebc9ef684U, 0xbd0073163d3421e7U, 0xbdba96b73db63a9aU, 0xbb5a51a4bdf21f0bU,
  0x3d7e7681bd0754b1U, 0x3caf14243d249927U, 0x3c6b55e23bf25dfeU, 0xbcf07f9fbe7701efU,
  0xbd28d98fbdc6a767U, 0xbd153498bd015033U, 0xbddba4f83a93a2c2U, 0xbccd19323ccf1c97U,
  0x3d0c26b93c89a70dU, 0x3da503d2bd5bb9d6U, 0x3d74a76c3c1f61e8U, 0xbcddd82dbcdfaf25U,
  0xbe28bf23bd8633f8U, 0x3d8ff3f1bd03356cU, 0xbcf21d10bcd22a11U, 0x3cf1c03dbd804a78U,
  0xbcb420c8397414a4U, 0x3d0767dabd0dacc8U, 0x3c2db7573b2f27c0U, 0xbd598f533d143bc3U,
  0x3ccf3b6a3cbf07d4U, 0x3c6e7696bd329441U, 0x3cd7aababe0e703dU, 0xbde1b20ebca7a8a2U,
  0xbc76d7313d9608d4U, 0x3cd4b9403cc858f1U, 0xbcd05046bd1aba34U, 0x3ccfdb933c9d4f8bU,
  0x3dc47f0d3d480396U, 0x3dc51c133d4a4b87U, 0x3d836ba83ce7e882U, 0x3d250095bc880847U,
  0x3db7d8ba3cc1df91U, 0x3d2ccc993d900c98U, 0xbc451ce63d468eadU, 0x3db30e423d6a1efcU,
  0xbda5297cbd878402U, 0xbbf57783bd38231aU, 0xbc2eb985bd6d1b8cU, 0x3da61541bcbf98b2U,
  0x3d8b8eac3ab9b768U, 0xbd551b203da3ad31U, 0x3d2672893d8c647bU, 0xbdcaab2dbab27b76U,
  0x3cc17cee3dc3ef43U, 0xbd3460bf3d0a2ac8U, 0xbbbc7eec3cb2360fU, 0xbd181ec8bd5da1c7U,
  0xbd0f935abda39ce2U, 0xbdbf739dbd844064U, 0xbe30900fbd249c96U, 0x3d96066b3d947529U,
  0x3dd192eabd94fdd6U, 0xbd8c1bfabd4f96f9U, 0xbd80f4c1bc1de7a8U, 0xb92fbfb0bd973083U,
  0xbd066fb3bd74e972U, 0x3d4f66233d8dd105U, 0x3dcc828cbe073296U, 0xbd684884bd8576b5U,
  0xbd1231453d858defU, 0x3d434aecbd6406e7U, 0xbcc448bf3c728384U, 0x3c898e8f3ca4c6caU,
  0x3c6248553d89cad1U, 0xbb15df783bb10beeU, 0x3d7f9b7cbd9d3b45U, 0x3d56ade6bcff4648U,
  0xbd1697fdbd58a532U, 0xbd26488ebe0ba9a5U, 0xbcc1880abd410be6U, 0x3d3d29d43d9c797eU,
  0x3d04e0723c213539U, 0xbd29080a3d9bbfa5U, 0x3d660691388ee2f8U, 0xbd416864bc54b5beU,
  0x3c3a284cbd19f08dU, 0xbdf0a76c3e0403f7U, 0xbcb8838cbc18fd28U, 0xbd01145fbc42ce32U,
  0x3cb5263c3c07aca0U, 0x3db18b20bdf0c378U, 0x3cd57fd5bd784473U, 0xbd8d8d323d54ccf4U,
  0xbe1000b2bd3a79dfU, 0xbaf503c1be197ff0U, 0x3c842b3e3d233beeU, 0xbdbb1056bac77418U,
  0x3ced1ecfbcad5786U, 0xbdba54163dc00037U, 0xbd0e8bdd3d73449bU, 0x3cc4839c3d9016aeU,
  0xbe2476f93d178bb8U, 0x3d23ff6cbd070347U, 0xbdb40b1fbc6e97b5U, 0xbd19afe33c790f37U,
  0x3e0387a23d329f85U, 0xbc56b43b3d1a75caU, 0xbc8543d13d9cc55cU, 0xbcf4fd2bbcf23b5aU,
  0xbc879f6ebde255fdU, 0xbd2a1bd23c0a485aU, 0xbd14568b3be402d9U, 0xbc90f9ef3de72827U,
  0xbd467a9bbdc5fc39U, 0x3dc071a1bd096bb0U, 0x3b647c603c70c942U, 0xba8a9a113b2a239eU,
  0xbc75c7babd05b237U, 0xbd8fa8643c7950e2U, 0xbcb9f3b5bd9506f3U, 0xbd20a3763bea4439U,
  0x3d9360cbbd54ef15U, 0x3b1ac7a6be2cee87U, 0xbcfaa5333d2c0fb0U, 0xbdb79e8b3d6b484cU,
  0xbd694959bd088b4cU, 0x3c68e954bd13c0e3U, 0x3c1acb9a3d1e9358U, 0x3d39830cbd14bcadU,
  0xbd956eb43d5dd267U, 0x3b2e45433d504ad0U, 0x3c9bda713d686060U, 0x3dad24eb3e0923c0U,
  0xbde6f9203d125128U, 0x3ca909cd3c9aeb87U, 0xbd183fa4bdda19a4U, 0xbd46fa603b60ab2aU,
  0x3d495d4b3d0fe292U, 0x3d35f71fbd97e7f1U, 0x3d88b2873d9e02beU, 0x3afb06cebe0703a3U,
  0x3ba0ad783c92834bU, 0x3d1de4f73da56d63U, 0x3d71cc653dddb5c9U, 0x3d9cc6663de7d35fU,
  0xbd6e8904bd2c8e7dU, 0x3d8f507abaecc750U, 0x3bb33d9d3dcaf0bdU, 0xbbce793cbbb7db88U,
  0xbc8cf5e73d9c62d4U, 0xbd1f435abda7eb7cU, 0x3d94bdbcbe047de9U, 0xbdd981f0bd1d3849U,
  0x3da24bd2bdff6b54U, 0x3c1e172abd2925a9U, 0xbcaf4185bd3b648fU, 0xbcd9527abc8075a0U,
  0x3d422449bd7d24e8U, 0xbb0dbcbfbca58b13U, 0xbc1c6b203da5d937U, 0x3cc4c3b6bde3cda0U,
  0xbbe97ad9bd059f51U, 0x3d0a6926bbce99abU, 0x3c9afe4f3bebbfb5U, 0xbce06d82bc80a613U,
  0xbd8411eebd1e624cU, 0xbbaa1a98bbd7e5c8U, 0xbd1486a9bda3a48dU, 0x3dbf8fb33dc55565U,
  0x3d6652493d48ece1U, 0xbd366474bdbb6c85U, 0x3d9042d03db9a0f3U, 0x3ba0049a3da3b50dU,
  0x3de1d3ffbd8c83b2U, 0xbb83a392bd0d6ac5U, 0xbcfbafd1bd469138U, 0x3d5fa4d93de2951eU,
  0xbadeae78bc071231U, 0xbcbf00b1bd9c731bU, 0xbd1014453d4fa710U, 0x3bbb1a1b3d1cb7f4U,
  0xbc9ceff7bcdbeed3U, 0xbdc1e8b9be1a93c8U, 0xbc692658bd43b22aU, 0xbcac6f053dc92527U,
  0x3ce4e600bc20a1adU, 0x3dfd74233d882170U, 0x3b635ed03abfd966U, 0xbccc982f3da9edd7U,
  0xbd8237d43cacebe8U, 0xbdb19d3e3dce6280U, 0xbd5cd53b3d6034d0U, 0x3dd8bdc53ca1f85bU,
  0x3df640b4bd00575aU, 0xbdd76f47bc915286U, 0x3db64934bde1a874U, 0xbccf977abc0161a1U,
  0xbd469843bcb1f5c2U, 0x3d0ad15bbcd0e6feU, 0x3c1ba3c8bd8811e0U, 0x3dcff69fbd2f9682U,
  0xbc5632953ae83ef4U, 0x3c9c23cb3c74466aU, 0x3e1e6090bd960262U, 0xbb448d46bcd42836U,
  0xbe056b963cbb9d3fU, 0xbd3deceebd66a4eeU, 0xbd20bd9abda8942fU, 0x3df3492fbcf597a4U,
  0xbc93252cbd000a6cU, 0x3d87b2bc3dab374cU, 0x3d3b58373e2e849eU, 0x3c24dc65bbc45b06U,
  0x3c6ccb7ebcb68730U, 0x3cdf9589bccd6598U, 0x3d70a791bca055d8U, 0x3d9450193bb3f250U,
  0x3dc1526cbd033ce6U, 0x3d9ce89b3d695cdaU, 0xbd7cccff3c2a55fcU, 0xbd38012b3da3ab90U,
  0x3c40999dbd690981U, 0x3dd7b7fa3d479eb6U, 0xbc29e2573d980963U, 0x3c4da71ebcfc315dU,
  0x3d093cd8bd8e7d9dU, 0xbd62f771bcaedd69U, 0xbd9bc113bd16c1a0U, 0xbcc65639bcebebfeU,
  0xbc8954e1bdadbfabU, 0xbda30423bd9a039cU, 0x3c15cfe9bd9e754cU, 0x3cf19f84bd253722U,
  0xbd88576dbdaddbabU, 0x3d1a2a6e3a9b9b52U, 0x3b196c6b3d260e99U, 0xbd6c97823d07094bU,
  0xbd08f6413bb30ddaU, 0xbd8a7de0bcf77f62U, 0xbe00d35a3cad83ceU, 0x3dcf91f2bd58e0d4U,
  0xbd53b6133a8d018cU, 0x3dce0b3c3d631363U, 0x3c3a28683dd5ea84U, 0x3bc1c07cbcf01147U,
  0xbcce0d213c5377a2U, 0x3cd6ce9ebd23aa7bU, 0xbd8c762e3c42d5dfU, 0x3c2be4223d31b5a1U,
  0xbd51bf4bbbaa34dfU, 0x3a04767cbb1bf903U, 0xbd1d4b1e3d18592aU, 0x3c4971ee3d2edaa0U,
  0x3d4a493bbdd11bf2U, 0x3d13f37b3d2d9e06U, 0x3aa3bbf3bc1b43ceU, 0x3c215f623aba3bacU,
  0x3b036df1bbb9828bU, 0xbd8d8abc3b5463aeU, 0xbcd2004ebcf8c5ccU, 0xbd347c4cbdc27c31U,
  0xbd889692bb2ba915U, 0xbd2f00adbcce8910U, 0x3d69ae8bbd1d12c1U, 0xbb558bc5bc1b5b10U,
  0x3d4841babdbd16e2U, 0xbcb70d6abd2ca2c6U, 0x3d912399bdce1c78U, 0xbb800518bc9ec504U,
  0xbce4476cbce2b62dU, 0xbdea49bbbdd0e742U, 0xbd18b2763da6e74bU, 0x3de8e1793c350d5fU,
  0xbcc8a122bd921b2fU, 0x3d1aa407bb4c7614U, 0x3c72b1083c23f405U, 0x3bb0fcfcbd7bcde2U,
  0xbd11c23fbcb88459U, 0xbd989d76ba8709a6U, 0xbd2dc2823d82462fU, 0x3c8dfbd23cc0cc0aU,
  0x3d3e62ca3b4de436U, 0x3e18292c3cacfdd1U, 0xbd844e803c89467dU, 0xbd576e263cebee1eU,
  0x3c16bd653cc72a4dU, 0xbcb945443ddc6c9fU, 0xbc875cf0bc8eb7a9U, 0xbcace46fbc5e5c9aU,
  0x3e289728bda33d5cU, 0x3b78a0e63d6f43bcU, 0x3db2240cbda8e400U, 0xbc919929bc104826U,
  0x3d0abc85bc6e2f3cU, 0x3e012202bd610be4U, 0x3e15ba243d15eea3U, 0x3d5078d53ced45ceU,
  0x3e396cc93d016067U, 0x3d3ca26a3c45aff5U, 0x3d9eac5ebda400c1U, 0xbd01b8a63d99fc77U,
  0xbd21287c3d893921U, 0x3cc7d40d3cf54197U, 0x3d348141bd406486U, 0x3c94e7913d0c5cfdU,
  0xb954fa983ccfe10cU, 0xbd1472273cca888fU, 0x3dbab4cb3dd0c2a8U, 0x3c5dca3cbd73f828U,
  0x3d739024bd85361dU, 0x3d33bee83de2012fU, 0x3def825e3bbfff8fU, 0x3ced9b183d03eec5U,
  0x3cf873883d913ddeU, 0x3c808162bb953cb1U, 0xbcff8494bbbd4751U, 0xbddaf57ebc105a70U,
  0xbd24a726bd4ed063U, 0xbd21ffc13d307a59U, 0xbd5697f4bc7949eaU, 0xbc876a40bca6ce9bU,
  0xbc14dd79bc92a0d8U, 0xbd91d611bd71a4e9U, 0x3dddd28dbe1135b4U, 0x3c8dc414bdeab505U,
  0xbd9d2d3c3c149fa4U, 0x3db2b11abd75f744U, 0x3d08dea73d83869bU, 0x3c8c11773d2c1e4fU,
  0x3b5e0829bd273c4bU, 0x3cfa64673cdf2d92U, 0xbcd687f8bb9dcabaU, 0xbc77f3d6bb6fdfd8U,
  0xbd32720e3d36532aU, 0x3db643fa3cdfa02dU, 0xbd9a89d7bd928fe5U, 0x3c8dc34abca1f905U,
  0x3c8dd3a1bd9d5df9U, 0x3d663c68bd35b892U, 0xbcfd11c53da90f03U, 0xba5074f13c8c88ddU,
  0x3d0560dcbe1b877eU, 0xbc094ea9ba4dbceaU, 0xbb4e38acbc8d03bcU, 0x3c0423fcbd29a20fU,
  0x3d5d0037bd56bf2fU, 0xbc377503bd18abd7U, 0xbd8bfa63bd6abd7cU, 0xbc11fe573d0bd5cfU,
  0x3ca5948bbdccce7fU, 0x3d43995cbc7bb2c7U, 0x3cd69e24bca2cbe3U, 0xbdf023c5bdae09c4U,
  0x3d72466cbdb59251U, 0xbd970bb93c381592U, 0xbd3e8429bd500aaaU, 0xbdb3db02bcf4a50dU,
  0xbe36c829bde1d9e3U, 0x3d8a8c69bdadd2e5U, 0xbdae60eb3c27169eU, 0x3ceedb2cbcd688e8U,
  0xbdf75797bd42aa6dU, 0x3c6d5a2ebb0db0b7U, 0x3d2e69a8bdca74d8U, 0xbd94f9353d455b00U,
  0xbd92b36d3d53a4ddU, 0xbd295fabbdaf9194U, 0xba50a5e1bd26f086U, 0x3d8ac95ebdfd586bU,
  0xbdc8f31dbdabb0a1U, 0xbd3bea5ebd8d5ff5U, 0x3d3d2a773d890d45U, 0xbd9974fc3c23eff2U,
  0xbcd4fcf9bd8bebe3U, 0x3cd6b315bd45bebbU, 0xbd8ee2e0bd9a7c0cU, 0x3d08a5ac3d0ad082U,
  0x3cc8b9b9bc5b9b48U, 0x3d76dd273c91b738U, 0xbab14e5e3d54df93U, 0x3c66ae493dfb5e47U,
  0x3e2c8c72bc9dc963U, 0xbc47d8b5bb9caf4cU, 0x3e102d423db9da07U, 0xbd7c40dabd95e4ceU,
  0x3d1a0b053cf80e87U, 0x3b65bdd63cc64997U, 0xbd44f9473dc83b4aU, 0xbbbc7705bde2e112U,
  0xbd5bbb11bdce78efU, 0x3dbde6383d8baaa0U, 0xbda1d5ebbd6aaae8U, 0x3d4022213adce9c2U,
  0xbcbcb56dbcd98949U, 0x3c8854fdbd7e6b77U, 0x3d7e6a7d3e19436aU, 0x3ca315193df9882bU,
  0x3d7a7916bae97210U, 0x3df53a40bc3b890aU, 0xbd49d685be075734U, 0x3de4aa67bd2fbf9dU,
  0xbd02a9a63d81e6b6U, 0x3ceba4a53d097c8dU, 0x3dddf37c3d8d8644U, 0x3d967f2e3da333feU,
  0x3cc083503b931b62U, 0xbd16304ebd03a1deU, 0xbd69d3f4bd3aae6bU, 0x3cd45b4c3dc8217aU,
  0x3dc88ed1bdcb510aU, 0xbd199aa7bce7a8f7U, 0xbcb1da803da2f919U, 0xbd3e4e2ebd906661U,
  0x3ded15ad3ae97927U, 0x3d77af7f3bc8f029U, 0x3d75f2863d3109afU, 0xbd4fb9ebbc427795U,
  0x3bec1de93cf98ca4U, 0xbaece53ebd4895fdU, 0x3c8924763e10b592U, 0xbd541661bde2e212U,
  0x3c9d8a3f3b9705f1U, 0xbd588b5ebd85d9e9U, 0x3d8dd0b4bdcc2e31U, 0x3b2a65b1bd921f54U,
  0x3db8f2e8bde3790eU, 0xbc333c963d1c642cU, 0xbd65c24f3dc395a5U, 0x3d903be73e522c1cU,
  0xbc7ced0dbc0ab5e0U, 0xbc663412bcf53fcdU, 0x3d17ba243c1e5198U, 0x3d47ad7fbbdf57a9U,
  0x3d4cb6673d832610U, 0xbd18a3933c8218a9U, 0x3d0f1b513c351500U, 0x3db051ee3c80afcaU,
  0x3d2d6cfabd1c56abU, 0xbd911747bd53406eU, 0xbd1e6455bcd8f95fU, 0xbd12388c3d0fc156U,
  0x3d8819e5bdf75142U, 0x3c59b5ce3d084c3eU, 0x3cb111d03d6b1132U, 0xbdb9cc4bbbad90fcU,
  0x3d5b179b3b8a1da6U, 0x3c20abbd3c235af8U, 0xbd8e4200bd37bb9dU, 0x3cca908c3cbef23aU,
  0x3c993cc8bc808fa9U, 0x3ca114a0bda4fbe4U, 0x3ca195123cb03008U, 0xbe07d13cbdbe5cb6U,
  0x3ccd0a9b3c8fac9aU, 0x3d67e9e9bd2a4586U, 0x3d6ca782bd9bec7dU, 0x3cbb8724bcbff974U,
  0xbd5e8a46bd908d0aU, 0x3d0488b43d9ea25eU, 0x3d950f03bd9bb2a9U, 0xbcebeb1e3e0fc6b7U,
  0xbdb328a7bcff407aU, 0x3cc17b61bda04a9eU, 0xbd42dea7bddfd236U, 0x3d56e229bcb6f98bU,
  0x3db0fae03b99df7fU, 0xbdb1ea673bbc59c1U, 0xbd5b04913cb37eefU, 0x3d94282bbd2c6804U,
  0x3de546bebc90427aU, 0xbce513bd3dd58059U, 0xbcb871d63cfc9496U, 0x3c17d78fbd9e9686U,
  0x3d8653f23b4169fbU, 0xbdaa2d4abd08bcbfU, 0xbcf5d39d3d062671U, 0x3c99dc663c3850e8U,
  0x3e0df4f73d083e89U, 0x3d2c4237bd0a5e81U, 0xbc441f0cbd703736U, 0x3d1b3d2dbd6d19dcU,
  0x3d98886dbb2b111bU, 0x3dfa7e2e3d7bfaccU, 0xbca79b663bc179baU, 0x3ccce232bd7a3afbU,
  0x3d027ababd94854eU, 0x3c7d71373c0d84ebU, 0x3d885e1dbdaf40beU, 0x3d13ae3e3d946e82U,
  0x3c9f803dbc1f7c31U, 0xbd311f9c3ccf0922U, 0x3cdf1a943d6424d4U, 0x3da287193da39af4U,
  0x3cad8abfbd5f3a64U, 0x3c0087f7bccf3a29U, 0x3c95f551bd628144U, 0x3dd6d211bccd17d4U,
  0x3e063df93d45cb7aU, 0xbc1256fc3cc7577aU, 0x3ae61b953bc17379U, 0x3d7cb1c7bd842962U,
  0xbc921bcf3cf8569aU, 0xbe06daa6bd15c7edU, 0x3cc877c1bdc5e84cU, 0xbdea35a2bca2a5ccU,
  0xbd6c38df3bf87a63U, 0x3cf34e1fbd19dfb3U, 0xbd95c592bca321b0U, 0x3ccdb9933d122261U,
  0x3d9e0fc0bdb45694U, 0xbc309038bdc6f792U, 0x3bb954163db10151U, 0xbd2d1fa3bdef1c4fU,
  0x3c8dcc09bcf1440aU, 0x3da7da1c3d92365dU, 0x3d4ce9a3bd4948e4U, 0x3d1828c8bdd60111U,
  0xbd7053ba3d730934U, 0xbd8d471bbc95b8fdU, 0x3c330c94bd8d4cfbU, 0xbcfe3e8d3c0d894cU,
  0x3d3aa3d33d52c41eU, 0x3d56b9bbbc810a5cU, 0x3d744855bd2fecb2U, 0x3c6403b0bd2afc4dU,
  0x3dc77a11bc96b364U, 0xbdaae54dbd32290aU, 0x3d39f8adbd137960U, 0xbc2672e6bd145b8dU,
  0x3dcfdaa93d8b78c9U, 0x3ceec910bd421993U, 0x3c9402533d0d7e86U, 0x3d040d48bc76674cU,
  0xbcb5a4d33d117efaU, 0xbcc9899e3da143abU, 0x3e213a3d3caa02e2U, 0xbdba1cd9bdb42effU,
  0x3c95a8c63dcadd61U, 0x3d8df86e3d2c33e8U, 0xbda82504bd0a3420U, 0x3d3bef80bbcff978U,
  0x3c5ebe8cbd9040b0U, 0xbd1e6dc73b627431U, 0xbd8e80643cee2158U, 0xbd3717b3bd9b1558U,
  0x3c766357bda341f9U, 0xbdaf34db3d85680dU, 0x3d37cd15bd9716abU, 0x3c854a80bc4a446bU,
  0x3aaad3403cf46d15U, 0x3d81e07abddfcb96U, 0x3d616ddc3c0c187eU, 0x3d90ac3f3ad5255fU,
  0x3d9c85463ce8658bU, 0x3b48f9e93d609721U, 0xba975c56bdaeff5fU, 0xbd2694913c1167dfU,
  0xbced6e58bd9f17f6U, 0xbdaa06f3bbb3750cU, 0x3d1b85ce3d1fd20fU, 0x3ca36574bbedf9bfU,
  0x3cf35f0d3c8f6fd3U, 0x3c8e2a053d8ec8f7U, 0x3d3f4b1a3ca226fbU, 0xbd004180bdae1e7aU,
  0x3d843cdfbd1a9c47U, 0xbcd93badbc1e1180U, 0x3d3f2b563cbb92ebU, 0x3b84445bbe1691caU,
  0x3d206651bd886b3dU, 0x3c6a5cb0bdec09ceU, 0xbd5821b1bd073029U, 0xbcc77d81bb495eccU,
  0x3b0ef5a6bd89165dU, 0xbd2d45c73d0d0626U, 0xbd9d58b93c5fcbb2U, 0xbd8de5573c8c2241U,
  0xbd91b921bde4f05cU, 0x3ce53d7abdfed3cbU, 0xbdf06e02bd1d850eU, 0xbd7eba873cdffaafU,
  0xbdf667c4bda14901U, 0x3cc39ba9bd455104U, 0xbc70af14bdbbfce9U, 0x3cd58f56bdf25659U,
  0xbd8c58acbd3fdbccU, 0x3ba0bfeabdbde7c1U, 0x3d0372ae3dba6959U, 0xbd7d4b87bd459713U,
  0x3d30684fbd578cc0U, 0x3da6a03a3cfa1e3eU, 0xbd859c323d446d1bU, 0x3ba1c5e73bb8ffe2U,
  0xbd2f93003c018492U, 0x3d314bcb3dccd218U, 0xbc3b834f3cc0a0c4U, 0xbdfbe69a3c3a6ad5U,
  0x3d3dc3e0bdaa8448U, 0xbd158058bde364d8U, 0xbd73cc4fbe2c648bU, 0xbddd99263d1e4c35U,
  0x3d80ebbdbe1f3099U, 0xbcc27454bc3da88bU, 0xbde5b7d8bc7e76fcU, 0x3d1836103cba476aU,
  0xbd19dbc1bd932ef9U, 0x3c655fe43c170754U, 0xbdf14a293d16cd5aU, 0x3bff8503bda42fa5U,
  0x3caf7168bdeaa116U, 0xbd5e6565bd587702U, 0xbab50f51be1ae5a6U, 0xbd27f39bbd6fe4a0U,
  0xbe23fccfbe2a7555U, 0x3d1fdaea3cdd43fdU, 0xbd221433bdf87df8U, 0x3d6ed7c6bd5c6b01U,
  0xbd69caf53c6da523U, 0xbcad2b14bd4fe3bcU, 0x3d9b1120bb031853U, 0xbccdb17e3cf8187bU,
  0xbdb6721abd91c1cfU, 0xbd0a7940bceca440U, 0xbd6ffce23dbc41ebU, 0x3d2714a7bba4c433U,
  0x3b9c183ebd81b9d5U, 0xbcfbee3b3cfe3fb3U, 0x3c309b2f3c9140b8U, 0xbcf6517ebcf3163eU,
  0xbdaa3455bc33311cU, 0xbdb81d9cbd123fb4U, 0x3a6995f6be166399U, 0x3cd65112bce4ec90U,
  0xbc0ede83be3b0314U, 0xbb9d91bebc90ee2dU, 0xbd2b8dc8bda89a3bU, 0xbd9528693c5e4ec4U,
  0xbdcbb6373d3e030fU, 0x3daaf78cbd965df0U, 0xbd495ada3cf25cf1U, 0x3cfd71273d9dcc47U,
  0x3da437fc3d15ca33U, 0x3c6a73d0be01aab1U, 0x3d6b3cf1bdeb0662U, 0xbdc9fb8a3ced364fU,
  0x3da84626bda4cc33U, 0x3d12ce823d914f6cU, 0x3cd73611bc26b358U, 0x3c9b982cbd4ffff9U,
  0x3ce00b28bd90a2d3U, 0x3c5bd9023d327f1aU, 0x3cc033b3bda694c7U, 0x3c0c68433d90f7a8U,
  0xbd45b950bbf32ba0U, 0xbdcbb55d3d8bd612U, 0xbdfceaf73d7371bfU, 0x3d110d963daed2adU,
  0x3d4166a33d909c1fU, 0x3d8d3c463d6cc988U, 0x3c6ca26d3c4d1915U, 0x3d745eadbd6599d4U,
  0xbd6120c4be4937f5U, 0xbd80d85bbdc8b1b7U, 0xbd0ab1e4bdb81ae2U, 0x3dabd24e3d619570U,
  0x3dd5f0f0bcb57ff1U, 0x3d12a07ebc89ead3U, 0x3cd8f4f5bceba744U, 0x3bf842a93d95a935U,
  0xbcd69f22bcbaef28U, 0x3d3061e0bd0e5202U, 0x39e8eaa43cd1c2a4U, 0x3c3d16fa3c45e48eU,
  0xbd882822bd01af51U, 0x3cf9943dbdafd8c9U, 0xbc6557b7bca5f1f4U, 0xbd7db0f53d414e88U,
  0xbdc428d83c47c19dU, 0x3da810ad3e2917f2U, 0xbc948327bcabde95U, 0x3c83b12dbd913cc4U,
  0xbd7fc867bd23025dU, 0x3cab32c8bd30920cU, 0x3d5b065bbceef2d9U, 0xbd87975cbdeaea51U,
  0x3b7066aabd6d8cf8U, 0xbc54e714bd2206fcU, 0xbe03cdf23d60c02dU, 0x3d02326c3d8d7095U,
  0x3c51d2dabd87f553U, 0xbd0646c13d066a9dU, 0x3d64c5cabbfed23cU, 0xbdeba61ebd5649dbU,
  0xbcc14528bc903f52U, 0xbc4d024c3a316efaU, 0xbb7397223d2fe2daU, 0xbd1ed3efbd8fc49fU,
  0x3e00e7dfbcf602f6U, 0x3cfb39c73bcf5a87U, 0x3c947643bcdab3e3U, 0xbd0425ae3d06fb04U,
  0x3d781cd1bd86c143U, 0xbdc1315abddada51U, 0xbd7d87a33cc3e4afU, 0xbc07b35dbdd2d755U,
  0x3d4e12c3bd8c6ef2U, 0x3d4e22fdbd32f346U, 0x3d9dd5fabcc297eaU, 0x3bd0a824bd2b9268U,
  0xbd6177a1bd617bebU, 0x3de626dc3d0e8714U, 0xbbc8a4233c56cde6U, 0x3d21c4c8bd161eacU,
  0xbdb00166bd237ae9U, 0x3d6077cdbd919b1cU, 0x3ca8c35f3bed3c6cU, 0x3d1db3e6be275497U,
  0xbb37960fbd20b1deU, 0x3bf39ab53c77eb33U, 0xbdb7d793bd0f8506U, 0x3d506153bcd1cea4U,
  0xbb625507bc4f5646U, 0xbc9b2d393cbc33d8U, 0x3c4568c73d17b4a3U, 0xbe10ebd3bca98a2bU,
  0xbd9fbc223d2aadd7U, 0xbcbd5bf33d8240f6U, 0x3b7b55463d226459U, 0xbdb99ae3bd194338U,
  0x3da98425be03d4f4U, 0x3d8b01743ddc0bf6U, 0x3de2f2b0bdc3f770U, 0xbd99c8d63d348ab8U,
  0x3c91c93f3da3ca5dU, 0x3d733d27bd2455d4U, 0x3d34b25ebc1dfb17U, 0xbccd90e23c1dc796U,
  0x3ceb945dbdc04ce4U, 0x3dabc506be29e26dU, 0xbd8e7c383dc0af5fU, 0xbc9c48d6bbdc8af2U,
  0xbcf25730bdfab252U, 0x3c550f403dba5b6fU, 0x3db8573bbd040115U, 0x3dcd48be3d8dda41U,
  0x3bb6de4bbde8a235U, 0xbce4216b3d113eceU, 0xbd2a539d3da952ceU, 0x3d5f03943cba294aU,
  0x3d8f05223be81938U, 0xbd2e7d7ebc297d20U, 0xbbb81f9fbd812c20U, 0xbc8c2d58bbf5f58dU,
  0x3d2ce75d3daa757dU, 0xbd93a4273b0e00d3U, 0x3d8ea1e43d44ac1cU, 0xbd2899ad3d9a9a88U,
  0xbd402fea3d91369bU, 0x3d35aac0bd73b6beU, 0xbc3578823cb5ef9fU, 0xbbe1e6723da66465U,
  0x3dbe106e3cbc99c3U, 0x3d985193bddfaf56U, 0xbdc5c4523d824403U, 0xbd9b7fa23db39071U,
  0xbc867f2abd64172dU, 0xbc2199773d58bbadU, 0xbd4f189e3cf3a750U, 0x3da338573c596b5cU,
  0xbb8b257d3c38c67cU, 0xbd8df7c03e0ca60bU, 0x3da8be97bd6c2bc4U, 0xbd0e04f83c52811dU,
  0xbd8da2a33ca3d35eU, 0xbdfd54c83d69b3b3U, 0xbc24b4a93d0df5dfU, 0xbb73c6e03c808f65U,
  0xb884e3cabca66757U, 0xbc517f6cbd459689U, 0x3d25661cbcf057d9U, 0x3d1102253c8f90f4U,
  0xbd850f72bba6d889U, 0x3ca2c01ebdac716cU, 0x394ae62abd6b2527U, 0x3d765c4ebd7eefd0U,
  0xbd16461fbd22705dU, 0x3d8342a13d8020a8U, 0x3d5f388d3b1e78a9U, 0x3d9abf63bda5cdc1U,
  0x3dad74ca3d18dba2U, 0xbd86d2e63d0c386aU, 0xbd2772863d2f2d47U, 0xbe35ac7abcd53ab8U,
  0x3d0a21fc3d7d91bbU, 0x3d1e8876bdb0538dU, 0xbd7db07e3d9baafeU, 0x3c8affda3d82396eU,
  0x3c3083723a9f3adcU, 0x3d7b06513d29063bU, 0xbdc102a1bd425f19U, 0x3d773b54bda2c770U,
  0x3c4e513e3d006665U, 0xbd078e643cb7cf15U, 0x3d0c6822bddca05cU, 0x3c8a21d1bd34aaaeU,
  0xbdca419c3d35d62fU, 0xbdd146f9bc8f2688U, 0xbc9864d73cfa1cf9U, 0x3cfc0880bbfef651U,
  0x3cb3376fbc4ea774U, 0xbc659b85bdcaa439U, 0xbd516559bca22402U, 0xbdaf081a3dbf7ffaU,
  0x3c86ff38bae4bde6U, 0x3d0326e4bc633172U, 0xbcfe0b30be03e312U, 0xbcd39751bd043cbdU,
  0xbd944af9bd91c84fU, 0x3c4dcb973d4cdc36U, 0x3d0ff41a3d528a59U, 0xbd649f51bd8c86faU,
  0xbc97c1bd3d3bab2fU, 0xbdcf0abe3d2207c4U, 0x3db730dcbdcd5c3cU, 0xbe3bc2aebdad2150U,
  0x3ca50015bc18181cU, 0x3bf4d0c1bd91ce6aU, 0xbdb0d31dbd42323dU, 0x3d234e453ccad9cdU,
  0x3dd4d085bd4bf421U, 0x3bd97663bd143d7eU, 0xbca0a819bbaaad4bU, 0xbc1257b43c6098ddU,
  0xbbcd379dbd87ff8dU, 0xbdb84b403d5c4a0fU, 0x3c4f102abd392f88U, 0xbd198e5cbc460b39U,
  0xbdbcf1d1bd1681d3U, 0x3d92b284380b63c8U, 0xbdb5d53bbc281fb0U, 0x3cd099eebd8766f1U,
  0x3d2a21ec3db30a54U, 0x3a73f9e3bc6cfdffU, 0xbb0c6f9b3d9427f6U, 0x3c9e3f9c3ccf4da6U,
  0x3af965cabd24b703U, 0x3cf9ae063b8153a8U, 0xbc9c7c6dbdcf42e2U, 0xbd4276c53d7b6db6U,
  0xbdfea7cfbdb38b71U, 0x3d3841733cb6d976U, 0x3db3245bbacbba25U, 0x3d9abfd4bd9b31a9U,
  0xbcb0ba0b3d5be8dfU, 0xbc83e383bc130ffdU, 0x3d194ce2bac41fe9U, 0xbdca55b53d6714ebU,
  0x3dade057bd1b1e21U, 0x3d0ef386baac7f75U, 0xbc18085fbdfc249fU, 0xbd84141a3d602f4aU,
  0xbdd5ad38ba106e3fU, 0xbd9828b83cabe751U, 0xbdba127bbd859dacU, 0xbd7071a5bd0630b8U,
  0x38e49d61bdfc09f8U, 0xbc2c99753d4c81afU, 0xbd86786dbcd4af6aU, 0x3ce50dedbdd04cf6U,
  0xbc86fe8bbd0f55f6U, 0xbc679a06bd0ffe54U, 0x3bba7e61bd717057U, 0x3e04008cbdc21c29U,
  0xbd8ca113bdf1f577U, 0x3d14a73abc2fc0aeU, 0x3d1754ce3cdc13f4U, 0x3cf356e2bb831578U,
  0xbd80074dbc5d4ae3U, 0xbd5cf921bd8b481bU, 0x3d80fbf1bbfe5bfbU, 0x3df223393ca445a2U,
  0xbd17d44b3d8d27d8U, 0x3d5f70253d519585U, 0x3d4070bd3db963dcU, 0xbc67ac4f3d4e81edU,
  0x3d09e632bd9f41c4U, 0xbd2635d1bda42227U, 0xbda75bda3c6d5c97U, 0xbbb3035d3dba5a52U,
  0xbbb64778bd81d62bU, 0xbc658b703cd42c2eU, 0xbc11c642bd0635fcU, 0x3d54d0193d85945bU,
  0xbb603205bca86f9fU, 0x3d883b7fbcdac28eU, 0xbdaa6f5d3cbccc3cU, 0xbdbf2b3dbd63c640U,
  0x3d9c0dccbcffd3aeU, 0xbcca4b543d107e93U, 0xbd7bb35dbde27093U, 0x3d76118dbc699fc8U,
  0xbcb234243ae099d7U, 0xbd19d6fe3db7c4d1U, 0x3cc66e9ebd5b9952U, 0x3dc3523cbd8b62a1U,
  0xbdc86522be05a12aU, 0xbd4c591a3d82f887U, 0x3cc4622cbc630dc8U, 0x3d136f3bbb383352U,
  0xbc875465bd477d6bU, 0xbdea63bbbcbb1295U, 0xbc10b8313d3e487fU, 0xbaf1e0f8bdd6e930U,
  0xbc1dbf56bd4fcc24U, 0xbc20845a3d4ea8dfU, 0x3d2badb43d556464U, 0x3ca806c2bd604c86U,
  0xbce50bdcbd74606eU, 0x3c959517bd8efb12U, 0xbd735e523c949e30U, 0x3d8e1d573a04e92cU,
  0xbc83d5b2bdc62cddU, 0x3d3ddb723d3e4bcaU, 0xbd2958ae3cacda99U, 0xbd2c5e873a822332U,
  0x3c8495633d57ddadU, 0xbcd4d79b3c2cb617U, 0xbdf82912bb8c391bU, 0x3c07452d3d95e437U,
  0xbcbeb4dd3d1b5206U, 0xbd811a183bd112cfU, 0x3bd4cfecbe3f25dfU, 0xbc9b2bc337e23364U,
  0x3d92283c3cc0e496U, 0xba2a92413cee1b62U, 0x3d95ee053cde71fbU, 0xbc6593b8bce27f5bU,
  0x3cff0c853c9d35b1U, 0x3b677b263dedf60dU, 0x3cdce1d93c889258U, 0xbd08974e3c385b0fU,
  0x3de3b857bb9f8711U, 0xbc1fa332bde7d8cfU, 0xbd7319b13dc49eecU, 0xbccc15d4bd42fd11U,
  0x3c70a21a3b768eaaU, 0xbd832ba23cc5e921U, 0xbd618ff33c6f7537U, 0x3ce0f669bddd27c8U,
  0xbd4a9fe8be09c749U, 0xbc7dbd983c48a494U, 0xbd6f3d9e3bc4b68eU, 0x3daa64773d5c53d8U,
  0x3dc6f763bda284beU, 0x3dc2c0f23da2b849U, 0x3e18206cbdfeaf58U, 0xbd868d0b3dd82444U,
  0xbd94e71e3d355039U, 0xbd32fd243d0311bbU, 0xbd87c5973d9a6882U, 0xbd2e88c8bc8c3765U,
  0x3c9c5216bd435c57U, 0xbd673e18bd850cfdU, 0xbd692c7fbd150346U, 0x3bb61c62bd354192U,
  0x3cf665b4bd0cb178U, 0x3bdbb718bcc7e52bU, 0x3d1be65cbce259d3U, 0x3d1de43cbdcb11c5U,
  0xbe02623bbdb8a82fU, 0x3e3d902e3d641c61U, 0x3dc8d571bd346757U, 0xbdadfd0dbda6dc4bU,
  0xbdd52b29bd918a49U, 0x3d1e423b3d59cfadU, 0xbd9a78653d57bd45U, 0x3e02a32e3cbb8b38U,
  0xbc92386d3d16e47fU, 0x3d8fd4eb3de61f6bU, 0x3d41ad333d8ebb88U, 0xbde39380bd400420U,
  0xbdbf5febbe1a15a9U, 0x3c4c1890be2593abU, 0xbd14973a3d568f05U, 0x3a67fe47bd995fe5U,
  0x3de7d91b3cdf4f59U, 0x3d4177ab3d905d94U, 0x3d45ba22bd223378U, 0x3d8c34893b8f74d6U,
  0x3d0fd5ad3d4769daU, 0xbd0e7057bca48874U, 0xbc2c4e0cbda04d30U, 0xbc9acb8a3d0994b4U,
  0x3c6fee813cc4cfc8U, 0xbcb93b57bd25f6a8U, 0xbd2564bd3d4df7ffU, 0x3d4ec4b1bd11bb9bU,
  0x3da48e3d3d4d0252U, 0xbd2e17c23daee9abU, 0x3de7081c3d0acb0dU, 0x3df239613c4407d8U,
  0x3c71d62abdc9e3f3U, 0x3db820ea3d3930d5U, 0xbc0005563c26b3d1U, 0xbd27146abdd18ac3U,
  0xbdd3e5e0bd5a0bddU, 0xbd640f463e02c484U, 0xbdb4b6103c78ac05U, 0xbbe9bee0bd095358U,
  0x3da61521be03d442U, 0xbb25e49d3c1ed20fU, 0x3d57ce89ba0052b5U, 0xbd337b493d75daa0U,
  0xbe2c6572bca82871U, 0x3d556215be12d359U, 0xbdf4b38e3e07c7beU, 0xbc842c55bca0251aU,
  0x3cffa3073cb9feefU, 0x3d52faed3d0e2c8cU, 0x3d96998bbcf6b447U, 0x3cac26683c5b130fU,
  0x3de72b6e3dcc574dU, 0x3db286c63d8575e2U, 0x3d30455b3c9a5807U, 0x3d3c14a1bc5b12acU,
  0x3c7bc7c33d236ddcU, 0x3d8c9ecbbd95732cU, 0x3cab85143d6cae6dU, 0xbdce545ebb892fedU,
  0x3de4d014bde585ddU, 0x3ce074d73dd9af51U, 0x3e1ac5e0bcbded8dU, 0x3d80b99d3c36b239U,
  0xbd216bc6bc6644afU, 0x3ddb245b3cdda787U, 0x3915e292bd70738bU, 0xbc9e7301bcdf105cU,
  0x3cd35e963d0830ceU, 0xbd16f8e83cfe1b18U, 0xbcd6caf7ba937cbaU, 0x3d085d7a3d23909eU,
  0x3df835eebd55693aU, 0x3c1e997a3cef0b05U, 0xbc054deb3d90c43dU, 0x3cd4fbb6bd722062U,
  0xbd36064ebc0714c4U, 0x3c835cd3bd012340U, 0xbd2e005c3d0dd9afU, 0xbcea0aa03d3ff10fU,
  0x3de5e4613da64d32U, 0x3ae5b3443d2b2928U, 0xbc35b861bc031491U, 0xbc7e313a3e0d4cafU,
  0x3d9dfec03cefb614U, 0x3d5387743de495bbU, 0xbd04bd8c3dc81e9fU, 0xbdbde2f63cae3d44U,
  0x3d21d99fbd2a9580U, 0x3d40552c3d48d50dU, 0xbc90d320bd8ce0a8U, 0x3d03a544bda3daa1U,
  0xbd0cd67bbdab364eU, 0x3c9cd6fb3d9d66eaU, 0xbce8ca04bd388d2fU, 0x3ce6ceefbdf758abU,
  0xbc787cce39dfe30bU, 0x3e1d5fed3cfd4150U, 0x3da3259b3d39b474U, 0x3d1334c53cc1a24bU,
  0x3ab02987bb4a3188U, 0xbd4707e43d981816U, 0xbe133b6cbd4f6045U, 0x3dff4617bd887910U,
  0x3c102cfe3b6cdaabU, 0x3de2772a3de95600U, 0x3e134acf3d949b11U, 0x3dd565e5bbeb2137U,
  0xbd6dffcfbd7987ecU, 0xbc616655be119d42U, 0xbca377b9bd0f691bU, 0x3c662943bbcdecacU,
  0x3d67bdbcbb741478U, 0xbd440ee73d25bd9aU, 0xbda6afb5bd6b4b2aU, 0xbcb5d85a3d0780d7U,
  0x3d31e1c53d27e0d5U, 0x3d9248843cb99a9fU, 0xbe2f47043b1fe455U, 0xbc9e2bbfbd8e19ebU,
  0x3d8d68e63cd4b5d7U, 0x3d7065b23cc6c67eU, 0x3d841c83bdda7e93U, 0xbcb46179bd83d633U,
  0x3da4c81f3d69d1a5U, 0x3d28a3e03bda79e8U, 0x3c964994bd20b3feU, 0x3c645de0bd699dadU,
  0x3d6cd3b73c71d0f3U, 0xbc2b7138bc900fe8U, 0x3d245578bd6450c4U, 0xbd09c47e3d113a1fU,
  0xbd1ca97f3ca3b976U, 0xbd84fc1b3d3cb1bcU, 0xbcfb56623cd21b52U, 0x3ddd2953bd8dc2cdU,
  0x3db269673bad8e6bU, 0xbd7454913d0df9e4U, 0x3c6eae393d7fd6e6U, 0x3d3bc233bcb261fbU,
  0xbc6ab75f3da1683eU, 0xbd982372bdac8833U, 0xbc5cf86dbbd8a10fU, 0x3d09ab5c3cf00efbU,
  0x3d191313be0e6216U, 0xbca92802bbef068aU, 0xbc8a9cffbd6482a8U, 0xbd9d1e4f3d5732a4U,
  0xbd0cc0273d21629fU, 0x3d592ebfbd07d1efU, 0xbe02c923ba8f4467U, 0xbc42a94f3c33719bU,
  0x3da3515cbdda3e0cU, 0x3d86a8a7bc85cc82U, 0x3d865787bdfb2fccU, 0xbd50b8dcbd46a005U,
  0x3bc21fbd3913b830U, 0x3d0c2fd7bdcbc890U, 0x3d395c32bddb53e2U, 0xbd8a40a5bd731382U,
  0xbd59b5a1bd19ff07U, 0x3d4693f83d400fbbU, 0x3b9f1492bbd8e63cU, 0xbda035093db55583U,
  0xbd5f0bc33cca42afU, 0xbcf02fb7bd90ebeaU, 0xbd445c393dee391dU, 0xbd8f7d17bcb76121U,
  0x3cbb3bbabc90b325U, 0xbb0c610fbcdc752aU, 0x3d1d33c83d1d3fc0U, 0xbd22c117bc53bc8dU,
  0x3cdf2924bde588e7U, 0x3b98432a3dc3bb45U, 0xbd513c7b3ce9a332U, 0x3cdeebeabacd0ba9U,
  0x3e0f5f20bdc1a4f5U, 0x3d7900313d160f4cU, 0x3ca331c4bc18bd25U, 0x3d41e7b53df88299U,
  0xbd954c503c838d7dU, 0xbd9e04033c76994cU, 0xbd926c393d8ad532U, 0x3d8910373bc37592U,
  0x3d926bb3bd266cdbU, 0xbd65dcca3d5e4084U, 0xbe3a6669be3be59eU, 0x3da00b883d8457cdU,
  0xbccb96dabca19b79U, 0x3d9957acbd4758f5U, 0x3b0bb66c3dfff066U, 0x3e193ccebdbf0338U,
  0xbcf7e0b1bdd2b7f4U, 0x3d8687ea3a160dd3U, 0x3d948e69bc8b4920U, 0xbda8de18be00aebcU,
  0xbcb63774bd3a7735U, 0x3bd8c1313b1f6287U, 0xbd1fcec3bc62b59bU, 0x3d98a94c3ca4e1e2U,
  0x3b5dc694bd81db13U, 0x3d4dac8b3e053e6bU, 0x3ca432c63e1e7348U, 0xbd3d64d03ba311f6U,
  0xbd16d7a3bdce6da8U, 0xbd00becfbdf56c27U, 0xbd882933bd0d8858U, 0x3dc5fbd8be0671f4U,
  0x3ce5dab0bce57a29U, 0xbd3b1bb53c8cfc3eU, 0xbc600980bcba86fdU, 0xbdc622cf3dc1a7c5U,
  0xbd5221663c5ed42cU, 0xbd92aaf3bde61068U, 0xbd92f163bcf190b0U, 0xbd627f403d2aa508U,
  0x3d0f2501bcee19e0U, 0xbd738a6dbca32721U, 0xbe0b3a58bd889e20U, 0x3c192063bd2d0874U,
  0xbc5ea577bc43a104U, 0x3dbdf9a7bce59e8fU, 0xbb75fb9d3d6519f4U, 0x3d6659b0bca94144U,
  0x3b3a9e4cbc8d53a3U, 0xbc0828a4bbfd97d9U, 0x3da894493c07913fU, 0xbd2f06703c320522U,
  0xbd8080f8bdb496b3U, 0x3c80cf0b3ced2843U, 0xbd4c6a903c1b9b5aU, 0x3cb7456ebdc37eadU,
  0x3d6dc66bbca0404dU, 0xbd9e685d3ddf3cddU, 0xbd4d0ab83d12f401U, 0xbd646b32bc48fa9aU,
  0xbe10c1b03cdd16f9U, 0xbd5587bcbd1a882cU, 0xbe01b6e2bd880f9bU, 0xbc8c11debc99e065U,
  0xbb39808ebd837c3eU, 0xbc92a9243dbd76a5U, 0x3d03e90ebd924f80U, 0xbdbfda24ba2915cbU,
  0x3d7ba33d3d8e798dU, 0x3c4e18e5bd450404U, 0x3c075302bcd84a5bU, 0x3d1e83d23d40a3abU,
  0x3c824cd43df2bb39U, 0x3d509fc9bce30920U, 0xbcc4a4d43c870a92U, 0xbd00771fbc991555U,
  0x3cbb2420bd9f151fU, 0x3d4e5c503dbea09dU, 0x3e0b145cbddbdf2dU, 0xbc2fd3163dd25a03U,
  0xbd50b7e0be2f589bU, 0x3d43b9fe3df3fc4bU, 0x3d5385f6bd9c5ee4U, 0x3d0f00263d1dbc51U,
  0xbd8b62a33c0d79ffU, 0xbd6d4fa63d58a670U, 0xbbb5d5ebbc899edeU, 0x3d92521dbd18483aU,
  0x3dd863553d6fd984U, 0x3bd1a8cf3d8e9fafU, 0x3ceb328c3cf4fd2bU, 0xbd5af3193d458080U,
  0xbd28754abd8b5715U, 0x3d93c82cbd77259fU, 0x3c522332bc87f55dU, 0xbd144f853c90f77bU,
  0x3d55caa5bdc806a5U, 0x3de1282dbc82d6f0U, 0x3cdc8a043e01e0d3U, 0xbdb223703e2c3655U,
  0xbd5588393b9fdf52U, 0x3d2a053bbc75a7f8U, 0x3c8181a0bdd67b71U, 0xbc2a9ae43c601eb6U,
  0xbc24df1e3dc5df03U, 0xbcb5d69cbcfead00U, 0x3ce781613b7bbab9U, 0xbc30cfdf3d36515fU,
  0x3d63e6c63d4ad0bbU, 0x3d72a0bd3b6ca345U, 0x3d461b10be12b461U, 0x3da635593d2553c6U,
  0xbd29a9793cee1243U, 0x3d8c178d3c87212aU, 0x3d3cd0443bfa35eaU, 0xbd05a617bb635151U,
  0xbe193b00bcb5285fU, 0xbd977920b9c7af70U, 0x3bc9c08dbd59cc77U, 0x3da1ab623b6bdf68U,
  0x3c7a4e5fbd8d6fafU, 0xbc45880f3cd65171U, 0x3d317dc23ddfc9ccU, 0x3cfb5bacbc9b5ac0U,
  0xbde55dd7bcb38ed3U, 0xbd59ec0ebcea233dU, 0x3d85cadb3da72bbcU, 0xbdaf5012bda4ef62U,
  0x3d91e1f1bda031b1U, 0x3d2aba6dbe1dd789U, 0xbdf48feb3da58227U, 0xbc8285103deffc8aU,
  0x3d8618e43cb424acU, 0xbbeb11a63c945a65U, 0x3d9628d1bd2b73f9U, 0xbcd89f71be322ba8U,
  0x3c76fe983c586aa4U, 0x3d5d676fbd41ca53U, 0xbce6bf103ca6ad2eU, 0xbd1dd0cabdf26196U,
  0xbd20a1123cb0ff86U, 0x3d8c5df63d0b32b5U, 0xbc95e69dbc9a6f7cU, 0x3db583c23c8965b6U,
  0xbd8000f0bbca8353U, 0xbaa30439bcbddd4aU, 0x3d1741dbbcbcf4efU, 0x3d83e78b3cbfd6b6U,
  0xbd856da53d404612U, 0x3d8c780cbe10e9dfU, 0x3cfde4edbc9c7e59U, 0x3c8dc1673c976bb0U,
  0xbb8d1671bdc65837U, 0x3c090eca3d891f5eU, 0xbc04c14b3d3367ecU, 0xbc4ce70ebd403d23U,
  0xbd08ca26bc8bb9daU, 0xbd99b65cbd46feb9U, 0x3bdfec6ebc81a4c4U, 0xbd2c864ebd6b9ddaU,
  0x3e114a723ca549c3U, 0x3d96f1d5bc01addbU, 0xbc291e2cbbc84537U, 0xbc8a9e803c1e86f1U,
  0x3d9db029bcfe4b33U, 0x3d58775ebcd30b31U, 0x3dcd1414bc017cceU, 0x3d4c7fe8bd32faceU,
  0xbcbed9613c09ae83U, 0xbb1972f4bdcc5e33U, 0x3cabe62d3d31a3f5U, 0xbdc2606ebd1e1585U,
  0xbd2b6844bdfd46faU, 0x3da7dc02bdee2d6aU, 0x3d79a57f3c408b27U, 0x3d65f05f3d6519fdU,
  0xbda319a6bd87cc65U, 0x3d24624fbb524c18U, 0x3c51d165bcfdb04fU, 0xbcdaae8a3d6c19b7U,
  0xbd68401d3cbbbb88U, 0xbd7c6100be02d52cU, 0xbc2ae0eebdc235fdU, 0x3cbaa81fbd22ef70U,
  0xbd25e461bb08a376U, 0x3d19dfb23b9280a7U, 0x3c9159b43c7e0b82U, 0xbd65dd663d8ad24eU,
  0x3bfc8163bd5646a0U, 0xbcff8d093cbac2c2U, 0x3d4dabf7bd71e4e8U, 0xbdc1a164bc8a63efU,
  0x3dd87c8ebcddd803U, 0xba94282d3c6fc15fU, 0x3b8b09c5bc403b0bU, 0x3d8827433b5df464U,
  0xbe3080db3d54aea7U, 0x3d6e00f13d349737U, 0xbd94f9343e02466bU, 0xbc8006ba3d356afeU,
  0x3a29e36cbd997825U, 0x3c13ef7ebd81caf9U, 0xbe2a3e35bc498d8eU, 0x3e0603eabc90f3e2U,
  0x3db1c7bebde0e007U, 0x3d512857b96e89bcU, 0xbd081de7bc851bdaU, 0x3dc08cb6be087ad1U,
  0xbd873104bd09e155U, 0x3d5dd6653ca66f49U, 0x3dd464c23aa72f95U, 0x3ce4744bbdf77351U,
  0x39a47c76bda5e681U, 0x3d5e6c233e3deb1dU, 0xbd30b8943d349db4U, 0x3dd5e9cebd186118U,
  0xbc7246913cdf69d6U, 0x3d36e1403dade8ddU, 0x3b9c799d3e082b8fU, 0x3c3c97763d995be6U,
  0xbd3bd5bcbd4eba75U, 0xbccf843abe4c7602U, 0xbd875999bc8b9169U, 0x3e1bbd573c807245U,
  0x3ba9d2143cdc8e0aU, 0xbcc84ba93d9c72dbU, 0xbcbe4903bd109f30U, 0xbd0ecf473d4ec7bfU,
  0x3d1efb7f3b0c71bbU, 0x3d6cd0d73da4c497U, 0xbdd748beb9b98e11U, 0xbd5e56353c8d2e03U,
  0xb9aa499bbce4e874U, 0x3d61ff30bd4a7af4U, 0x3ba64b75bcca7301U, 0x3d620b11bd48ae7eU,
  0x3deb875abd5cef24U, 0xbc0f7464bcedfdb6U, 0x3ca9081b3c9400f7U, 0x3c878a63bd8693c7U,
  0x3caf2ed1bd24cf51U, 0x3d23462f3da82f0eU, 0x3c9c1b223cdb6ba6U, 0x3c5309823dc72a48U,
  0xbd6619303b83b6e9U, 0x3d096f573ad81f7eU, 0xbbb87cea3b22935aU, 0x3d3a9976bd8b6819U,
  0x3e17ba433df41980U, 0x3c828ee7bc33556dU, 0x3d33d9413c013e94U, 0x3d231ba23d11902eU,
  0xbbc0683bbd0d89aaU, 0xbcb100bbbc62ffb8U, 0xbd6338f53c9ab35cU, 0xbd27122fbd512cf2U,
  0x3d119f5cbd247816U, 0xbcbea0683c984824U, 0xbc89dd7fbd0eece9U, 0xbd53276abd1393dbU,
  0x3c8661fb3d850961U, 0x3d179dbbbd57f0cdU, 0xbd86f30dbd52736fU, 0xbd841a1fbd80a993U,
  0x3be63be6bccf46bbU, 0x3d7709afbcae0bd7U, 0x3d39647dbde3b351U, 0xbd9f1d193b0f84b2U,
  0xbd7fde0bbd00c16bU, 0x3d08e497bd6106cbU, 0x3d8081a7bd615195U, 0x3d284288bde1531aU,
  0xbc627baabd8f9c58U, 0xbd5e57453bf794e7U, 0x3c0632dfbd8bea91U, 0x3c6091893e211420U,
  0xbd288911bc342c7cU, 0xbdd1227bbccfce91U, 0x3d770a8ebd11724cU, 0xbd21a020bdb0d1afU,
  0x3d851c7d3c2bde30U, 0xbd9f4a173d16e1a5U, 0x3c766a7b3d44c0d5U, 0x3bbed925bdd8c3abU,
  0xbc846832bdee6efcU, 0xbdb6d1793d31baa8U, 0xbb6c3d51bd440b27U, 0x3cfb37433b7390f1U,
  0x3dce97b4bd73c5e8U, 0x3dc54ab83c16580cU, 0xbc850c9dbcda813cU, 0xbdfafb633e061a01U,
  0xbd8cbdc6bcb62288U, 0xbd1c3d44bcf9e2a9U, 0x3bdddd81bc8168d2U, 0xbc2955babc65ea5dU,
  0x3d14f0ff3d9291b2U, 0xbdc130433d350a21U, 0x3b639d71bd9575cfU, 0x3d2cc5e53d8f74dfU,
  0xbca0cae3bc9c6374U, 0x3cd920403d133025U, 0xbca76fcb3d67d7cbU, 0x3de32286bdcf97cfU,
  0x3d971990bd76b966U, 0x3e20f2e83d0960d4U, 0x3b991fa6bd571f6bU, 0xbc9e374abdb5974aU,
  0xbdc6b1073cabdb03U, 0x3d203db3bc4a4341U, 0x3b3e257a3c8f5cc5U, 0x3de859f73db58e59U,
  0xbc99c6d2bd515c5fU, 0x3de3ac7f3e05421fU, 0x3dceee353d337c70U, 0xbd1948debd96eac1U,
  0x3c933c34bdb52e88U, 0xbe11a9a63c8171aeU, 0xba990216bda6620dU, 0xba5035973c447bd6U,
  0x3d932389bd5b23e7U, 0x3d20b8e6bc0b3b83U, 0x3ce2d5bf3d29d78bU, 0xbe1093c93d5a828bU,
  0x3d4e4dea3cd6f089U, 0xbd00bc18bd1e4d85U, 0x3cfd0379be131f69U, 0xbda8a7e03d3b81d9U,
  0xbc64557f3dbf9062U, 0x3d3d5c5b3d737233U, 0xbe02cbaa3ce07682U, 0xbc014cea3d071c79U,
  0x3c8a2f7fbd9bbc62U, 0xbb9373d33d7b101bU, 0x3b07fdf5bdc7f633U, 0x3cbb80aabcca6976U,
  0xbd04f32abe0bac62U, 0x3d11273bbd34fb16U, 0x3d8021dabd228463U, 0xbca4530ebd197bc1U,
